#include "magic_wand_model_data.h"

// We need to keep the data array aligned on some architectures.
#ifdef __has_attribute
#define HAVE_ATTRIBUTE(x) __has_attribute(x)
#else
#define HAVE_ATTRIBUTE(x) 0
#endif
#if HAVE_ATTRIBUTE(aligned) || (defined(__GNUC__) && !defined(__clang__))
#define DATA_ALIGN_ATTRIBUTE __attribute__((aligned(4)))
#else
#define DATA_ALIGN_ATTRIBUTE
#endif

const unsigned char g_magic_wand_model_data[] DATA_ALIGN_ATTRIBUTE = {
  0x1c, 0x00, 0x00, 0x00, 0x54, 0x46, 0x4c, 0x33, 0x14, 0x00, 0x20, 0x00,
  0x04, 0x00, 0x08, 0x00, 0x0c, 0x00, 0x10, 0x00, 0x14, 0x00, 0x00, 0x00,
  0x18, 0x00, 0x1c, 0x00, 0x14, 0x00, 0x00, 0x00, 0x03, 0x00, 0x00, 0x00,
  0x18, 0x00, 0x00, 0x00, 0x2c, 0x00, 0x00, 0x00, 0xd8, 0x00, 0x00, 0x00,
  0x2c, 0x00, 0x00, 0x00, 0x80, 0x00, 0x00, 0x00, 0x78, 0x00, 0x00, 0x00,
  0x05, 0x00, 0x00, 0x00, 0x28, 0x07, 0x00, 0x00, 0x44, 0x06, 0x00, 0x00,
  0xbc, 0x03, 0x00, 0x00, 0xf8, 0x02, 0x00, 0x00, 0xac, 0x01, 0x00, 0x00,
  0x01, 0x00, 0x00, 0x00, 0xd0, 0x00, 0x00, 0x00, 0x14, 0x00, 0x00, 0x00,
  0xdc, 0x32, 0x00, 0x00, 0xd8, 0x32, 0x00, 0x00, 0xd0, 0x31, 0x00, 0x00,
  0x1c, 0x31, 0x00, 0x00, 0x74, 0x30, 0x00, 0x00, 0xfc, 0x2f, 0x00, 0x00,
  0x90, 0x2f, 0x00, 0x00, 0x40, 0x13, 0x00, 0x00, 0xec, 0x11, 0x00, 0x00,
  0x10, 0x10, 0x00, 0x00, 0xb4, 0x07, 0x00, 0x00, 0xb0, 0x32, 0x00, 0x00,
  0xac, 0x32, 0x00, 0x00, 0xa8, 0x32, 0x00, 0x00, 0xa4, 0x32, 0x00, 0x00,
  0xa0, 0x32, 0x00, 0x00, 0x9c, 0x32, 0x00, 0x00, 0x98, 0x32, 0x00, 0x00,
  0x94, 0x32, 0x00, 0x00, 0x3c, 0x00, 0x00, 0x00, 0x00, 0x00, 0x00, 0x00,
  0x01, 0x00, 0x00, 0x00, 0x0c, 0x00, 0x00, 0x00, 0x08, 0x00, 0x0c, 0x00,
  0x04, 0x00, 0x08, 0x00, 0x08, 0x00, 0x00, 0x00, 0x08, 0x00, 0x00, 0x00,
  0x13, 0x00, 0x00, 0x00, 0x13, 0x00, 0x00, 0x00, 0x6d, 0x69, 0x6e, 0x5f,
  0x72, 0x75, 0x6e, 0x74, 0x69, 0x6d, 0x65, 0x5f, 0x76, 0x65, 0x72, 0x73,
  0x69, 0x6f, 0x6e, 0x00, 0xb6, 0xce, 0xff, 0xff, 0x04, 0x00, 0x00, 0x00,
  0x10, 0x00, 0x00, 0x00, 0x31, 0x2e, 0x35, 0x2e, 0x30, 0x00, 0x00, 0x00,
  0x00, 0x00, 0x00, 0x00, 0x00, 0x00, 0x00, 0x00, 0x0f, 0x00, 0x00, 0x00,
  0x4d, 0x4c, 0x49, 0x52, 0x20, 0x43, 0x6f, 0x6e, 0x76, 0x65, 0x72, 0x74,
  0x65, 0x64, 0x2e, 0x00, 0x00, 0x00, 0x0e, 0x00, 0x18, 0x00, 0x04, 0x00,
  0x08, 0x00, 0x0c, 0x00, 0x10, 0x00, 0x14, 0x00, 0x0e, 0x00, 0x00, 0x00,
  0x14, 0x00, 0x00, 0x00, 0x5c, 0x00, 0x00, 0x00, 0x60, 0x00, 0x00, 0x00,
  0x64, 0x00, 0x00, 0x00, 0x84, 0x00, 0x00, 0x00, 0x12, 0x00, 0x00, 0x00,
  0x9c, 0x31, 0x00, 0x00, 0x2c, 0x31, 0x00, 0x00, 0x88, 0x30, 0x00, 0x00,
  0xe0, 0x2f, 0x00, 0x00, 0x38, 0x2f, 0x00, 0x00, 0xd4, 0x2e, 0x00, 0x00,
  0x6c, 0x2e, 0x00, 0x00, 0x18, 0x12, 0x00, 0x00, 0xbc, 0x10, 0x00, 0x00,
  0xe0, 0x0e, 0x00, 0x00, 0x0c, 0x06, 0x00, 0x00, 0x28, 0x05, 0x00, 0x00,
  0xe8, 0x03, 0x00, 0x00, 0x3c, 0x03, 0x00, 0x00, 0x98, 0x02, 0x00, 0x00,
  0xd4, 0x01, 0x00, 0x00, 0x10, 0x01, 0x00, 0x00, 0x84, 0x00, 0x00, 0x00,
  0x01, 0x00, 0x00, 0x00, 0x00, 0x00, 0x00, 0x00, 0x01, 0x00, 0x00, 0x00,
  0x11, 0x00, 0x00, 0x00, 0x08, 0x00, 0x00, 0x00, 0x74, 0x05, 0x00, 0x00,
  0x94, 0x04, 0x00, 0x00, 0x78, 0x03, 0x00, 0x00, 0xbc, 0x02, 0x00, 0x00,
  0x30, 0x02, 0x00, 0x00, 0x50, 0x01, 0x00, 0x00, 0xa8, 0x00, 0x00, 0x00,
  0x10, 0x00, 0x00, 0x00, 0x04, 0x00, 0x00, 0x00, 0x6d, 0x61, 0x69, 0x6e,
  0x00, 0x00, 0x00, 0x00, 0x7a, 0xff, 0xff, 0xff, 0x00, 0x00, 0x00, 0x09,
  0x04, 0x00, 0x00, 0x00, 0x1c, 0x00, 0x00, 0x00, 0x10, 0x00, 0x00, 0x00,
  0x04, 0x00, 0x00, 0x00, 0xb2, 0xcf, 0xff, 0xff, 0x00, 0x00, 0x80, 0x3f,
  0x01, 0x00, 0x00, 0x00, 0x11, 0x00, 0x00, 0x00, 0x01, 0x00, 0x00, 0x00,
  0x10, 0x00, 0x00, 0x00, 0xa0, 0xfa, 0xff, 0xff, 0x19, 0x00, 0x00, 0x00,
  0x00, 0x00, 0x00, 0x19, 0x01, 0x00, 0x00, 0x00, 0x40, 0xcf, 0xff, 0xff,
  0x14, 0x00, 0x00, 0x00, 0x12, 0x00, 0x00, 0x00, 0x18, 0x00, 0x00, 0x00,
  0x30, 0x00, 0x00, 0x00, 0x20, 0x00, 0x00, 0x00, 0x02, 0x00, 0x00, 0x00,
  0x01, 0x00, 0x00, 0x00, 0x04, 0x00, 0x00, 0x00, 0x08, 0x00, 0x00, 0x00,
  0x49, 0x64, 0x65, 0x6e, 0x74, 0x69, 0x74, 0x79, 0x00, 0x00, 0x00, 0x00,
  0x02, 0x00, 0x00, 0x00, 0xff, 0xff, 0xff, 0xff, 0x04, 0x00, 0x00, 0x00,
  0x24, 0xd0, 0xff, 0xff, 0x00, 0x00, 0x0e, 0x00, 0x18, 0x00, 0x08, 0x00,
  0x0c, 0x00, 0x10, 0x00, 0x07, 0x00, 0x14, 0x00, 0x0e, 0x00, 0x00, 0x00,
  0x00, 0x00, 0x00, 0x08, 0x03, 0x00, 0x00, 0x00, 0x18, 0x00, 0x00, 0x00,
  0x0c, 0x00, 0x00, 0x00, 0x04, 0x00, 0x00, 0x00, 0x40, 0xcf, 0xff, 0xff,
  0x01, 0x00, 0x00, 0x00, 0x10, 0x00, 0x00, 0x00, 0x03, 0x00, 0x00, 0x00,
  0x0f, 0x00, 0x00, 0x00, 0x07, 0x00, 0x00, 0x00, 0x04, 0x00, 0x00, 0x00,
  0xc8, 0xcf, 0xff, 0xff, 0x14, 0x00, 0x00, 0x00, 0x11, 0x00, 0x00, 0x00,
  0x18, 0x00, 0x00, 0x00, 0x5c, 0x00, 0x00, 0x00, 0x4c, 0x00, 0x00, 0x00,
  0x02, 0x00, 0x00, 0x00, 0x01, 0x00, 0x00, 0x00, 0x04, 0x00, 0x00, 0x00,
  0x34, 0x00, 0x00, 0x00, 0x73, 0x65, 0x71, 0x75, 0x65, 0x6e, 0x74, 0x69,
  0x61, 0x6c, 0x2f, 0x64, 0x65, 0x6e, 0x73, 0x65, 0x5f, 0x31, 0x2f, 0x4d,
  0x61, 0x74, 0x4d, 0x75, 0x6c, 0x3b, 0x73, 0x65, 0x71, 0x75, 0x65, 0x6e,
  0x74, 0x69, 0x61, 0x6c, 0x2f, 0x64, 0x65, 0x6e, 0x73, 0x65, 0x5f, 0x31,
  0x2f, 0x42, 0x69, 0x61, 0x73, 0x41, 0x64, 0x64, 0x00, 0x00, 0x00, 0x00,
  0x02, 0x00, 0x00, 0x00, 0xff, 0xff, 0xff, 0xff, 0x04, 0x00, 0x00, 0x00,
  0xc8, 0xcf, 0xff, 0xff, 0xda, 0xfc, 0xff, 0xff, 0x00, 0x00, 0x00, 0x08,
  0x03, 0x00, 0x00, 0x00, 0x24, 0x00, 0x00, 0x00, 0x18, 0x00, 0x00, 0x00,
  0x0c, 0x00, 0x00, 0x00, 0x00, 0x00, 0x06, 0x00, 0x08, 0x00, 0x07, 0x00,
  0x06, 0x00, 0x00, 0x00, 0x00, 0x00, 0x00, 0x01, 0x01, 0x00, 0x00, 0x00,
  0x0f, 0x00, 0x00, 0x00, 0x03, 0x00, 0x00, 0x00, 0x0e, 0x00, 0x00, 0x00,
  0x06, 0x00, 0x00, 0x00, 0x03, 0x00, 0x00, 0x00, 0xe8, 0xfb, 0xff, 0xff,
  0x09, 0x00, 0x00, 0x00, 0x00, 0x00, 0x00, 0x09, 0x01, 0x00, 0x00, 0x00,
  0x88, 0xd0, 0xff, 0xff, 0x14, 0x00, 0x00, 0x00, 0x10, 0x00, 0x00, 0x00,
  0x18, 0x00, 0x00, 0x00, 0x6c, 0x00, 0x00, 0x00, 0x5c, 0x00, 0x00, 0x00,
  0x02, 0x00, 0x00, 0x00, 0x01, 0x00, 0x00, 0x00, 0x10, 0x00, 0x00, 0x00,
  0x46, 0x00, 0x00, 0x00, 0x73, 0x65, 0x71, 0x75, 0x65, 0x6e, 0x74, 0x69,
  0x61, 0x6c, 0x2f, 0x64, 0x65, 0x6e, 0x73, 0x65, 0x2f, 0x4d, 0x61, 0x74,
  0x4d, 0x75, 0x6c, 0x3b, 0x73, 0x65, 0x71, 0x75, 0x65, 0x6e, 0x74, 0x69,
  0x61, 0x6c, 0x2f, 0x64, 0x65, 0x6e, 0x73, 0x65, 0x2f, 0x52, 0x65, 0x6c,
  0x75, 0x3b, 0x73, 0x65, 0x71, 0x75, 0x65, 0x6e, 0x74, 0x69, 0x61, 0x6c,
  0x2f, 0x64, 0x65, 0x6e, 0x73, 0x65, 0x2f, 0x42, 0x69, 0x61, 0x73, 0x41,
  0x64, 0x64, 0x00, 0x00, 0x02, 0x00, 0x00, 0x00, 0xff, 0xff, 0xff, 0xff,
  0x10, 0x00, 0x00, 0x00, 0xa8, 0xd1, 0xff, 0xff, 0x00, 0x00, 0x0a, 0x00,
  0x10, 0x00, 0x04, 0x00, 0x08, 0x00, 0x0c, 0x00, 0x0a, 0x00, 0x00, 0x00,
  0x02, 0x00, 0x00, 0x00, 0x10, 0x00, 0x00, 0x00, 0x04, 0x00, 0x00, 0x00,
  0x01, 0x00, 0x00, 0x00, 0x0e, 0x00, 0x00, 0x00, 0x02, 0x00, 0x00, 0x00,
  0x0d, 0x00, 0x00, 0x00, 0x05, 0x00, 0x00, 0x00, 0xa8, 0xfc, 0xff, 0xff,
  0x16, 0x00, 0x00, 0x00, 0x00, 0x00, 0x00, 0x16, 0x01, 0x00, 0x00, 0x00,
  0x48, 0xd1, 0xff, 0xff, 0x14, 0x00, 0x00, 0x00, 0x0f, 0x00, 0x00, 0x00,
  0x18, 0x00, 0x00, 0x00, 0x40, 0x00, 0x00, 0x00, 0x30, 0x00, 0x00, 0x00,
  0x02, 0x00, 0x00, 0x00, 0x01, 0x00, 0x00, 0x00, 0x70, 0x00, 0x00, 0x00,
  0x1a, 0x00, 0x00, 0x00, 0x73, 0x65, 0x71, 0x75, 0x65, 0x6e, 0x74, 0x69,
  0x61, 0x6c, 0x2f, 0x66, 0x6c, 0x61, 0x74, 0x74, 0x65, 0x6e, 0x2f, 0x52,
  0x65, 0x73, 0x68, 0x61, 0x70, 0x65, 0x00, 0x00, 0x02, 0x00, 0x00, 0x00,
  0xff, 0xff, 0xff, 0xff, 0x70, 0x00, 0x00, 0x00, 0x2c, 0xd1, 0xff, 0xff,
  0x3e, 0xfe, 0xff, 0xff, 0x00, 0x00, 0x00, 0x05, 0x01, 0x00, 0x00, 0x00,
  0x38, 0x00, 0x00, 0x00, 0x2c, 0x00, 0x00, 0x00, 0x14, 0x00, 0x00, 0x00,
  0x00, 0x00, 0x0e, 0x00, 0x14, 0x00, 0x00, 0x00, 0x10, 0x00, 0x0c, 0x00,
  0x08, 0x00, 0x04, 0x00, 0x0e, 0x00, 0x00, 0x00, 0x03, 0x00, 0x00, 0x00,
  0x01, 0x00, 0x00, 0x00, 0x03, 0x00, 0x00, 0x00, 0x01, 0x00, 0x00, 0x00,
  0x01, 0x00, 0x00, 0x00, 0x0d, 0x00, 0x00, 0x00, 0x01, 0x00, 0x00, 0x00,
  0x0c, 0x00, 0x00, 0x00, 0xe8, 0xd1, 0xff, 0xff, 0x14, 0x00, 0x00, 0x00,
  0x0e, 0x00, 0x00, 0x00, 0x20, 0x00, 0x00, 0x00, 0x58, 0x00, 0x00, 0x00,
  0x40, 0x00, 0x00, 0x00, 0x04, 0x00, 0x00, 0x00, 0x01, 0x00, 0x00, 0x00,
  0x07, 0x00, 0x00, 0x00, 0x01, 0x00, 0x00, 0x00, 0x10, 0x00, 0x00, 0x00,
  0x22, 0x00, 0x00, 0x00, 0x73, 0x65, 0x71, 0x75, 0x65, 0x6e, 0x74, 0x69,
  0x61, 0x6c, 0x2f, 0x6d, 0x61, 0x78, 0x5f, 0x70, 0x6f, 0x6f, 0x6c, 0x69,
  0x6e, 0x67, 0x32, 0x64, 0x5f, 0x31, 0x2f, 0x4d, 0x61, 0x78, 0x50, 0x6f,
  0x6f, 0x6c, 0x00, 0x00, 0x04, 0x00, 0x00, 0x00, 0xff, 0xff, 0xff, 0xff,
  0x07, 0x00, 0x00, 0x00, 0x01, 0x00, 0x00, 0x00, 0x10, 0x00, 0x00, 0x00,
  0xe4, 0xd1, 0xff, 0xff, 0x1a, 0xfe, 0xff, 0xff, 0x00, 0x00, 0x00, 0x01,
  0x24, 0x00, 0x00, 0x00, 0x18, 0x00, 0x00, 0x00, 0x04, 0x00, 0x00, 0x00,
  0x0c, 0xfe, 0xff, 0xff, 0x01, 0x00, 0x00, 0x00, 0x01, 0x00, 0x00, 0x00,
  0x00, 0x00, 0x00, 0x01, 0x01, 0x00, 0x00, 0x00, 0x0c, 0x00, 0x00, 0x00,
  0x03, 0x00, 0x00, 0x00, 0x0b, 0x00, 0x00, 0x00, 0x09, 0x00, 0x00, 0x00,
  0x02, 0x00, 0x00, 0x00, 0x90, 0xd2, 0xff, 0xff, 0x14, 0x00, 0x00, 0x00,
  0x0d, 0x00, 0x00, 0x00, 0x20, 0x00, 0x00, 0x00, 0xb8, 0x00, 0x00, 0x00,
  0xa0, 0x00, 0x00, 0x00, 0x04, 0x00, 0x00, 0x00, 0x01, 0x00, 0x00, 0x00,
  0x15, 0x00, 0x00, 0x00, 0x01, 0x00, 0x00, 0x00, 0x10, 0x00, 0x00, 0x00,
  0x83, 0x00, 0x00, 0x00, 0x73, 0x65, 0x71, 0x75, 0x65, 0x6e, 0x74, 0x69,
  0x61, 0x6c, 0x2f, 0x63, 0x6f, 0x6e, 0x76, 0x32, 0x64, 0x5f, 0x31, 0x2f,
  0x52, 0x65, 0x6c, 0x75, 0x3b, 0x73, 0x65, 0x71, 0x75, 0x65, 0x6e, 0x74,
  0x69, 0x61, 0x6c, 0x2f, 0x63, 0x6f, 0x6e, 0x76, 0x32, 0x64, 0x5f, 0x31,
  0x2f, 0x42, 0x69, 0x61, 0x73, 0x41, 0x64, 0x64, 0x3b, 0x73, 0x65, 0x71,
  0x75, 0x65, 0x6e, 0x74, 0x69, 0x61, 0x6c, 0x2f, 0x63, 0x6f, 0x6e, 0x76,
  0x32, 0x64, 0x5f, 0x31, 0x2f, 0x43, 0x6f, 0x6e, 0x76, 0x32, 0x44, 0x3b,
  0x73, 0x65, 0x71, 0x75, 0x65, 0x6e, 0x74, 0x69, 0x61, 0x6c, 0x2f, 0x63,
  0x6f, 0x6e, 0x76, 0x32, 0x64, 0x5f, 0x31, 0x2f, 0x42, 0x69, 0x61, 0x73,
  0x41, 0x64, 0x64, 0x2f, 0x52, 0x65, 0x61, 0x64, 0x56, 0x61, 0x72, 0x69,
  0x61, 0x62, 0x6c, 0x65, 0x4f, 0x70, 0x2f, 0x72, 0x65, 0x73, 0x6f, 0x75,
  0x72, 0x63, 0x65, 0x00, 0x04, 0x00, 0x00, 0x00, 0xff, 0xff, 0xff, 0xff,
  0x15, 0x00, 0x00, 0x00, 0x01, 0x00, 0x00, 0x00, 0x10, 0x00, 0x00, 0x00,
  0xfc, 0xd3, 0xff, 0xff, 0x00, 0x00, 0x0e, 0x00, 0x1a, 0x00, 0x08, 0x00,
  0x0c, 0x00, 0x10, 0x00, 0x07, 0x00, 0x14, 0x00, 0x0e, 0x00, 0x00, 0x00,
  0x00, 0x00, 0x00, 0x05, 0x01, 0x00, 0x00, 0x00, 0x3c, 0x00, 0x00, 0x00,
  0x30, 0x00, 0x00, 0x00, 0x14, 0x00, 0x00, 0x00, 0x00, 0x00, 0x0e, 0x00,
  0x18, 0x00, 0x17, 0x00, 0x10, 0x00, 0x0c, 0x00, 0x08, 0x00, 0x04, 0x00,
  0x0e, 0x00, 0x00, 0x00, 0x03, 0x00, 0x00, 0x00, 0x03, 0x00, 0x00, 0x00,
  0x03, 0x00, 0x00, 0x00, 0x03, 0x00, 0x00, 0x00, 0x00, 0x00, 0x00, 0x01,
  0x01, 0x00, 0x00, 0x00, 0x0b, 0x00, 0x00, 0x00, 0x01, 0x00, 0x00, 0x00,
  0x0a, 0x00, 0x00, 0x00, 0x2c, 0xff, 0xff, 0xff, 0x11, 0x00, 0x00, 0x00,
  0x00, 0x00, 0x00, 0x11, 0x01, 0x00, 0x00, 0x00, 0xcc, 0xd3, 0xff, 0xff,
  0x14, 0x00, 0x00, 0x00, 0x0c, 0x00, 0x00, 0x00, 0x20, 0x00, 0x00, 0x00,
  0x58, 0x00, 0x00, 0x00, 0x40, 0x00, 0x00, 0x00, 0x04, 0x00, 0x00, 0x00,
  0x01, 0x00, 0x00, 0x00, 0x15, 0x00, 0x00, 0x00, 0x01, 0x00, 0x00, 0x00,
  0x08, 0x00, 0x00, 0x00, 0x20, 0x00, 0x00, 0x00, 0x73, 0x65, 0x71, 0x75,
  0x65, 0x6e, 0x74, 0x69, 0x61, 0x6c, 0x2f, 0x6d, 0x61, 0x78, 0x5f, 0x70,
  0x6f, 0x6f, 0x6c, 0x69, 0x6e, 0x67, 0x32, 0x64, 0x2f, 0x4d, 0x61, 0x78,
  0x50, 0x6f, 0x6f, 0x6c, 0x00, 0x00, 0x00, 0x00, 0x04, 0x00, 0x00, 0x00,
  0xff, 0xff, 0xff, 0xff, 0x15, 0x00, 0x00, 0x00, 0x01, 0x00, 0x00, 0x00,
  0x08, 0x00, 0x00, 0x00, 0xd8, 0xd4, 0xff, 0xff, 0x00, 0x00, 0x0e, 0x00,
  0x14, 0x00, 0x00, 0x00, 0x08, 0x00, 0x0c, 0x00, 0x07, 0x00, 0x10, 0x00,
  0x0e, 0x00, 0x00, 0x00, 0x00, 0x00, 0x00, 0x01, 0x30, 0x00, 0x00, 0x00,
  0x24, 0x00, 0x00, 0x00, 0x10, 0x00, 0x00, 0x00, 0x0c, 0x00, 0x10, 0x00,
  0x00, 0x00, 0x04, 0x00, 0x08, 0x00, 0x0f, 0x00, 0x0c, 0x00, 0x00, 0x00,
  0x01, 0x00, 0x00, 0x00, 0x01, 0x00, 0x00, 0x00, 0x00, 0x00, 0x00, 0x01,
  0x01, 0x00, 0x00, 0x00, 0x0a, 0x00, 0x00, 0x00, 0x03, 0x00, 0x00, 0x00,
  0x00, 0x00, 0x00, 0x00, 0x08, 0x00, 0x00, 0x00, 0x01, 0x00, 0x00, 0x00,
  0x0c, 0x00, 0x10, 0x00, 0x0b, 0x00, 0x00, 0x00, 0x0c, 0x00, 0x04, 0x00,
  0x0c, 0x00, 0x00, 0x00, 0x03, 0x00, 0x00, 0x00, 0x00, 0x00, 0x00, 0x03,
  0x01, 0x00, 0x00, 0x00, 0xac, 0xd4, 0xff, 0xff, 0x14, 0x00, 0x00, 0x00,
  0x0b, 0x00, 0x00, 0x00, 0x20, 0x00, 0x00, 0x00, 0xb0, 0x00, 0x00, 0x00,
  0x98, 0x00, 0x00, 0x00, 0x04, 0x00, 0x00, 0x00, 0x01, 0x00, 0x00, 0x00,
  0x40, 0x00, 0x00, 0x00, 0x03, 0x00, 0x00, 0x00, 0x08, 0x00, 0x00, 0x00,
  0x7b, 0x00, 0x00, 0x00, 0x73, 0x65, 0x71, 0x75, 0x65, 0x6e, 0x74, 0x69,
  0x61, 0x6c, 0x2f, 0x63, 0x6f, 0x6e, 0x76, 0x32, 0x64, 0x2f, 0x52, 0x65,
  0x6c, 0x75, 0x3b, 0x73, 0x65, 0x71, 0x75, 0x65, 0x6e, 0x74, 0x69, 0x61,
  0x6c, 0x2f, 0x63, 0x6f, 0x6e, 0x76, 0x32, 0x64, 0x2f, 0x42, 0x69, 0x61,
  0x73, 0x41, 0x64, 0x64, 0x3b, 0x73, 0x65, 0x71, 0x75, 0x65, 0x6e, 0x74,
  0x69, 0x61, 0x6c, 0x2f, 0x63, 0x6f, 0x6e, 0x76, 0x32, 0x64, 0x2f, 0x43,
  0x6f, 0x6e, 0x76, 0x32, 0x44, 0x3b, 0x73, 0x65, 0x71, 0x75, 0x65, 0x6e,
  0x74, 0x69, 0x61, 0x6c, 0x2f, 0x63, 0x6f, 0x6e, 0x76, 0x32, 0x64, 0x2f,
  0x42, 0x69, 0x61, 0x73, 0x41, 0x64, 0x64, 0x2f, 0x52, 0x65, 0x61, 0x64,
  0x56, 0x61, 0x72, 0x69, 0x61, 0x62, 0x6c, 0x65, 0x4f, 0x70, 0x2f, 0x72,
  0x65, 0x73, 0x6f, 0x75, 0x72, 0x63, 0x65, 0x00, 0x04, 0x00, 0x00, 0x00,
  0xff, 0xff, 0xff, 0xff, 0x40, 0x00, 0x00, 0x00, 0x03, 0x00, 0x00, 0x00,
  0x08, 0x00, 0x00, 0x00, 0x00, 0xd5, 0xff, 0xff, 0x0a, 0xd6, 0xff, 0xff,
  0x04, 0x00, 0x00, 0x00, 0x00, 0x08, 0x00, 0x00, 0x8f, 0x53, 0xb3, 0xbc,
  0xda, 0x3f, 0xbc, 0xbe, 0x65, 0x96, 0xaf, 0xbd, 0xf9, 0xf4, 0x16, 0xbd,
  0x7d, 0xf3, 0xea, 0xbc, 0x46, 0x70, 0x62, 0xbe, 0xe9, 0xc3, 0x38, 0x3d,
  0x62, 0x11, 0xd2, 0x3c, 0xf3, 0xe1, 0xe8, 0x3d, 0xdc, 0x8b, 0xf1, 0xbe,
  0x38, 0xb8, 0xae, 0xbd, 0xac, 0x0a, 0x06, 0x3e, 0x4d, 0xd1, 0x05, 0xbe,
  0x48, 0xf4, 0x1b, 0x3e, 0x1e, 0xa7, 0x8d, 0x3e, 0xe7, 0x11, 0x81, 0xbd,
  0x49, 0x5f, 0x86, 0x3e, 0x35, 0x38, 0xa7, 0xbe, 0xe3, 0x54, 0x4b, 0xbd,
  0x9f, 0x77, 0xb0, 0xb9, 0x5c, 0xd7, 0x0c, 0xbe, 0x08, 0xeb, 0xc7, 0x3e,
  0x3e, 0xf0, 0x75, 0x3c, 0xe5, 0x9b, 0x45, 0x3e, 0x22, 0xde, 0x43, 0xbe,
  0x18, 0x9c, 0x39, 0x3e, 0x7a, 0x02, 0xcb, 0xbe, 0x52, 0xb7, 0xcc, 0xbe,
  0x34, 0x92, 0x86, 0xbd, 0x17, 0x71, 0x53, 0x3d, 0x40, 0x0d, 0xc8, 0xbe,
  0x4b, 0x10, 0x9f, 0x3e, 0x14, 0x4a, 0x7f, 0xbb, 0x4c, 0xa9, 0xa0, 0xbe,
  0x6e, 0x81, 0x0d, 0x3e, 0x6f, 0xb0, 0x0d, 0x3d, 0x9f, 0xbd, 0xa3, 0xbd,
  0xb3, 0xbe, 0x2d, 0x3e, 0xd6, 0xf5, 0xbc, 0xbd, 0x22, 0x35, 0x83, 0xbe,
  0x36, 0x21, 0xb2, 0xbd, 0xec, 0x07, 0x79, 0xbe, 0x0b, 0x34, 0x57, 0xbd,
  0x3f, 0x41, 0xb8, 0x3e, 0x3b, 0xe3, 0x02, 0x3e, 0x07, 0xff, 0x1f, 0x3e,
  0x46, 0x87, 0x9a, 0xbd, 0x8d, 0x73, 0x23, 0xbc, 0x7c, 0xc4, 0xc6, 0xbd,
  0xc7, 0x6b, 0x62, 0xbe, 0x49, 0xc0, 0xc6, 0xbb, 0xf1, 0x4c, 0x41, 0xbd,
  0x67, 0x3d, 0xe4, 0x3c, 0xb1, 0x31, 0x66, 0xbd, 0x37, 0x10, 0xe5, 0xbd,
  0xf9, 0x4a, 0xcf, 0xbc, 0xf3, 0x63, 0x31, 0xbe, 0x63, 0x4c, 0xf2, 0xbd,
  0xab, 0x79, 0x70, 0xbe, 0x9e, 0x0b, 0x5b, 0x3d, 0x29, 0x97, 0x16, 0x3d,
  0x2c, 0xb2, 0x1d, 0x3e, 0x6d, 0xf9, 0x21, 0xbe, 0xed, 0xe7, 0xec, 0x3d,
  0x6a, 0x20, 0x68, 0x3e, 0xff, 0x04, 0x90, 0xbd, 0xc1, 0xfa, 0x56, 0x3e,
  0xfe, 0xd2, 0xa9, 0xbd, 0x06, 0x32, 0x3f, 0x3b, 0xcb, 0x13, 0x02, 0xbe,
  0x10, 0xba, 0x92, 0x3d, 0x63, 0x67, 0xef, 0xbd, 0x5a, 0xfd, 0xa3, 0x3e,
  0x8d, 0x5d, 0x7b, 0xbd, 0x42, 0xee, 0x52, 0x3d, 0xa4, 0x7d, 0x66, 0xbd,
  0xdd, 0x92, 0x3c, 0xbd, 0xe6, 0x66, 0x1a, 0xbe, 0x0f, 0xc0, 0x71, 0x3d,
  0xaf, 0x0d, 0x97, 0xbe, 0x55, 0x9c, 0x95, 0xbd, 0x06, 0xa8, 0x71, 0xbe,
  0x2f, 0x7b, 0xa1, 0x3e, 0xf5, 0xf7, 0x31, 0xbe, 0xdd, 0xdc, 0x2d, 0xbe,
  0x4a, 0x1e, 0x53, 0xbe, 0x3c, 0x53, 0x9c, 0xbd, 0xdf, 0xc6, 0x7e, 0xbd,
  0x6c, 0x8f, 0x5a, 0xbd, 0x7f, 0x17, 0x8b, 0xbe, 0xd2, 0x73, 0x4f, 0xbd,
  0x1b, 0xf8, 0x3a, 0xbe, 0xee, 0xb9, 0x45, 0xbe, 0x18, 0xd9, 0x3d, 0xbe,
  0xd0, 0x31, 0x4c, 0x3e, 0xe9, 0x33, 0xd4, 0xbe, 0xc5, 0x28, 0x05, 0xbe,
  0x08, 0x78, 0xa3, 0xbe, 0xc8, 0x1c, 0x7e, 0x3e, 0xea, 0xa4, 0x12, 0xbe,
  0xc6, 0x8b, 0x14, 0xbf, 0xbc, 0x45, 0x7a, 0x3d, 0x40, 0xe9, 0xb7, 0xba,
  0x70, 0x05, 0x4c, 0xbe, 0x4b, 0x9c, 0xa3, 0xbd, 0x7b, 0xd5, 0xf4, 0x3e,
  0x9f, 0x82, 0xf2, 0xbd, 0xf8, 0x58, 0xba, 0xbc, 0xe3, 0x40, 0xc5, 0xbe,
  0xc8, 0x7f, 0x54, 0x3e, 0x27, 0x1a, 0x22, 0xbe, 0xc3, 0xbf, 0xec, 0xbc,
  0x6b, 0xa5, 0x10, 0xbc, 0x6f, 0xba, 0x04, 0x3e, 0xd1, 0xc7, 0xc4, 0x3d,
  0xec, 0xc3, 0xbd, 0x39, 0x03, 0xc4, 0xc0, 0xbe, 0x56, 0xd1, 0xbd, 0x3e,
  0xcd, 0x9c, 0xda, 0xbd, 0x07, 0x31, 0x95, 0xbd, 0x71, 0x89, 0x36, 0xbd,
  0x03, 0x2a, 0x0a, 0x3e, 0x56, 0xbf, 0xc9, 0x3e, 0xe2, 0xf4, 0xfa, 0xbd,
  0xda, 0x27, 0xb6, 0xbe, 0xe4, 0xab, 0xdd, 0x3d, 0x72, 0xb6, 0x89, 0x3d,
  0xf6, 0x09, 0x20, 0xbd, 0xcb, 0x65, 0xe5, 0xbd, 0xe7, 0x59, 0xa8, 0x3e,
  0x15, 0x87, 0xda, 0xbe, 0x9c, 0xc1, 0x32, 0xbe, 0x69, 0xfb, 0xac, 0x3b,
  0xb8, 0x7c, 0xec, 0xbe, 0xf4, 0x82, 0xce, 0xbe, 0x77, 0xd5, 0xce, 0x3e,
  0xac, 0xdb, 0x51, 0xbf, 0xae, 0x71, 0x3a, 0x3a, 0xbc, 0x8b, 0xc7, 0xbe,
  0xe6, 0xa3, 0xbf, 0x3d, 0x5b, 0x0d, 0x8c, 0xbd, 0xb5, 0xc7, 0x84, 0xbe,
  0xf9, 0x54, 0x95, 0xbf, 0x08, 0x80, 0x4e, 0x3e, 0xa8, 0x19, 0x18, 0xbf,
  0x01, 0x39, 0x86, 0xbd, 0x33, 0x81, 0xa2, 0xbd, 0x97, 0x59, 0x06, 0x3e,
  0xad, 0x87, 0xb2, 0xbd, 0x94, 0x38, 0x4b, 0xbd, 0x7a, 0x9c, 0xfa, 0xbe,
  0x2d, 0xd0, 0x46, 0x3d, 0xeb, 0xe0, 0x0e, 0xbe, 0x98, 0x82, 0xbe, 0xbd,
  0x7c, 0x48, 0x09, 0x3e, 0x29, 0x47, 0xbf, 0x3d, 0x26, 0xa6, 0xa4, 0xbd,
  0xfc, 0x09, 0xf3, 0x3d, 0xcb, 0xf6, 0xac, 0x3c, 0x90, 0x92, 0xec, 0x3d,
  0x5d, 0x53, 0xeb, 0xbd, 0x7a, 0xfe, 0x83, 0xbd, 0x11, 0x24, 0x3d, 0xbd,
  0x9f, 0xe5, 0x66, 0x3e, 0xb3, 0x0f, 0xa1, 0xbc, 0xc9, 0xdd, 0x14, 0xbe,
  0x1a, 0xa8, 0x27, 0xbe, 0xa3, 0xcb, 0xb2, 0x3e, 0xba, 0xe1, 0x12, 0xbf,
  0x64, 0x04, 0x80, 0x3c, 0x68, 0xe7, 0x31, 0xbf, 0x7a, 0x3e, 0xab, 0x3e,
  0x6a, 0x60, 0xb9, 0xbd, 0xc3, 0xa2, 0x99, 0xbc, 0x6d, 0xe5, 0x23, 0xbf,
  0x2d, 0xa3, 0x98, 0x3e, 0x56, 0x81, 0xd8, 0xbe, 0x02, 0x3b, 0xc3, 0xbd,
  0x53, 0xff, 0xc2, 0xbe, 0x66, 0x1a, 0xc1, 0xbd, 0x32, 0xa4, 0x29, 0xbe,
  0xc5, 0x85, 0x00, 0x3e, 0x58, 0x9e, 0x58, 0x3b, 0xbc, 0x44, 0x29, 0x3e,
  0xf7, 0x6a, 0x3b, 0x3e, 0x0d, 0x6d, 0x9c, 0xbc, 0x19, 0x00, 0x77, 0xbd,
  0x81, 0x24, 0x3c, 0xbe, 0x20, 0x3e, 0xdb, 0xbd, 0x5f, 0x48, 0x9b, 0xbd,
  0x8e, 0xaf, 0xbe, 0x3e, 0xa7, 0xc4, 0xc5, 0x3d, 0x5e, 0xae, 0x7c, 0xbe,
  0x19, 0xa4, 0xeb, 0xbe, 0xff, 0x89, 0x23, 0x3e, 0x27, 0xa6, 0xae, 0x3d,
  0x26, 0xec, 0x42, 0x3e, 0x26, 0x41, 0xfe, 0xbd, 0x0b, 0x50, 0xd2, 0xbe,
  0x86, 0x95, 0x2e, 0xbe, 0xfb, 0xa9, 0x4f, 0xbe, 0x0f, 0x23, 0xd7, 0xbe,
  0x80, 0x69, 0xb5, 0x3d, 0x1e, 0x84, 0xe6, 0x3d, 0xd4, 0xdd, 0xcb, 0xba,
  0x98, 0x6f, 0x28, 0xbe, 0x65, 0x2a, 0x79, 0xbd, 0x63, 0x39, 0x8c, 0x3e,
  0xe6, 0xe9, 0x2b, 0xbf, 0x61, 0xad, 0x89, 0xbe, 0x14, 0x21, 0xb8, 0xbd,
  0x75, 0x0c, 0x00, 0xbe, 0x7a, 0x29, 0xa1, 0xbd, 0x19, 0xde, 0xa1, 0xbe,
  0x6e, 0xaa, 0x00, 0xbf, 0x87, 0x5a, 0x41, 0xbe, 0xa7, 0xd1, 0x07, 0xbf,
  0xea, 0xd2, 0x8d, 0xbe, 0xba, 0x21, 0x08, 0x3f, 0x75, 0x3b, 0x1d, 0x3e,
  0x67, 0x1e, 0xed, 0x3b, 0x9e, 0x9f, 0x83, 0x3e, 0x29, 0x0b, 0x05, 0xbf,
  0xd0, 0x69, 0xa1, 0xbc, 0xff, 0x0b, 0x0a, 0xbe, 0x4d, 0x6e, 0x6f, 0xbd,
  0x19, 0x76, 0x90, 0xbe, 0x79, 0x63, 0x83, 0xbc, 0x91, 0x7a, 0xdc, 0xbd,
  0x37, 0x50, 0x58, 0xbe, 0x28, 0xc1, 0x23, 0xbe, 0xdb, 0x3c, 0x05, 0xbf,
  0xe2, 0x9b, 0xf3, 0xbd, 0xb7, 0x8e, 0xa0, 0xbe, 0xec, 0xc5, 0x61, 0xbe,
  0x9e, 0xd8, 0x0b, 0xbd, 0xf5, 0x51, 0xa0, 0xbd, 0xb2, 0x92, 0x61, 0xbe,
  0xb4, 0x0f, 0x1c, 0xbe, 0x5d, 0xba, 0x0f, 0xbd, 0xb9, 0x41, 0x83, 0xbd,
  0x88, 0x7b, 0x7b, 0xbe, 0xd2, 0x93, 0x9f, 0xbd, 0xa2, 0x1b, 0x44, 0x3e,
  0xe9, 0xfc, 0x0d, 0xbd, 0x37, 0x14, 0x13, 0x3e, 0x50, 0x65, 0x74, 0xbd,
  0xef, 0xc2, 0x09, 0x3e, 0x97, 0x33, 0xea, 0x3d, 0x90, 0x1e, 0x57, 0xbe,
  0xa9, 0x98, 0x8c, 0x3b, 0x64, 0xf3, 0xbf, 0xbc, 0x11, 0x5a, 0x19, 0xbc,
  0x30, 0x4b, 0xc0, 0x3d, 0x46, 0x08, 0x36, 0x3f, 0x5b, 0xa2, 0xd6, 0x3d,
  0x7e, 0xea, 0x08, 0xbf, 0x7c, 0x9e, 0x54, 0xbc, 0xa5, 0xa9, 0x7a, 0xbf,
  0x7e, 0xce, 0x6f, 0xbe, 0x78, 0x1f, 0xbb, 0xbd, 0x58, 0xa3, 0x17, 0xbf,
  0xb3, 0xd6, 0x36, 0xbf, 0x0a, 0x7a, 0x6e, 0x3e, 0x7c, 0x8f, 0x15, 0xbe,
  0x8e, 0xb3, 0x55, 0xbe, 0xb2, 0x7a, 0x19, 0xbd, 0x78, 0xf0, 0xfd, 0x3d,
  0xdb, 0xba, 0x2f, 0xbd, 0x2b, 0xb9, 0xa8, 0x3e, 0xb4, 0x43, 0x64, 0xbb,
  0xa3, 0x67, 0x1f, 0x3e, 0x66, 0x6b, 0x06, 0xbd, 0x96, 0x66, 0xf8, 0xbd,
  0xaf, 0x30, 0x22, 0x3d, 0xbb, 0xc0, 0x63, 0x3e, 0xb8, 0x16, 0xcc, 0x3c,
  0xd1, 0xbe, 0x92, 0x3e, 0x11, 0xf4, 0xc9, 0xbc, 0xae, 0xca, 0x05, 0x3c,
  0x1e, 0x3a, 0x23, 0xbd, 0xec, 0x93, 0x76, 0x3c, 0xc5, 0xea, 0x06, 0xbe,
  0xd8, 0x90, 0xe9, 0xbc, 0xe3, 0x17, 0x6e, 0xbc, 0x46, 0xe0, 0x18, 0x3e,
  0x25, 0x94, 0x47, 0xbd, 0x71, 0x04, 0x29, 0xbd, 0xff, 0xc9, 0xcd, 0xbe,
  0x27, 0x5c, 0x01, 0xbe, 0x41, 0x4b, 0x17, 0xbf, 0x09, 0x61, 0xd2, 0x3e,
  0x58, 0xb5, 0x36, 0xbd, 0x91, 0xec, 0x29, 0xbd, 0xf8, 0xe0, 0xc8, 0xbe,
  0x9e, 0xca, 0x17, 0xbd, 0xc9, 0x67, 0x64, 0xbe, 0x4f, 0x6f, 0x2a, 0xbd,
  0xec, 0xba, 0x8a, 0xbe, 0x1c, 0xac, 0xd6, 0xbd, 0x00, 0x9b, 0x22, 0xbd,
  0xe5, 0x20, 0x3a, 0xbd, 0x37, 0x4c, 0x84, 0xbd, 0xb7, 0x16, 0x7b, 0x3e,
  0x22, 0xf3, 0x07, 0x3c, 0x5a, 0x8e, 0x19, 0x3e, 0xb6, 0x65, 0xce, 0x3c,
  0x06, 0xcb, 0x08, 0xbe, 0x3d, 0xae, 0xda, 0x3b, 0x5f, 0x0f, 0xfb, 0xbd,
  0x15, 0x71, 0x1e, 0x3e, 0xbd, 0xda, 0xa0, 0x3d, 0x9e, 0xb5, 0x98, 0x3e,
  0xa8, 0x22, 0x4c, 0x3d, 0x74, 0xbf, 0x6c, 0x3e, 0x03, 0xfb, 0x35, 0xbe,
  0xd6, 0x07, 0xda, 0xbc, 0xbc, 0xee, 0x98, 0xbe, 0xfc, 0x53, 0x78, 0x3e,
  0x57, 0x79, 0xdd, 0x3d, 0x32, 0x53, 0x3f, 0xbf, 0x22, 0x0e, 0x01, 0xbf,
  0x1f, 0x41, 0xe9, 0xbd, 0x99, 0x58, 0x9c, 0xbd, 0x32, 0x92, 0x90, 0xbd,
  0x9a, 0x1a, 0x8a, 0xbe, 0x5f, 0xec, 0x59, 0xbf, 0xc0, 0x79, 0x1b, 0xbf,
  0x45, 0xb2, 0x9a, 0xbe, 0x18, 0x91, 0xa9, 0x3d, 0x4f, 0x9d, 0xd1, 0xbe,
  0x9c, 0x8f, 0x15, 0x3d, 0x69, 0x73, 0x80, 0x3b, 0xb2, 0xf8, 0x5c, 0xbe,
  0xb4, 0x63, 0x33, 0xbf, 0xea, 0x8b, 0x2d, 0x3e, 0x27, 0x3f, 0x75, 0xbf,
  0x08, 0xba, 0xbd, 0x3d, 0x21, 0x86, 0x82, 0x3e, 0xc4, 0xe6, 0x77, 0x3e,
  0x2c, 0x4a, 0x47, 0x3d, 0x96, 0x08, 0x6c, 0xbd, 0x01, 0xbf, 0x55, 0xbf,
  0x76, 0x33, 0xc1, 0xbe, 0x58, 0x4e, 0x5f, 0xbf, 0xb9, 0x44, 0x14, 0xbb,
  0xd9, 0x98, 0xe0, 0x3d, 0xa5, 0xab, 0x07, 0x3c, 0x54, 0xa0, 0x8f, 0x3d,
  0x4e, 0x3e, 0x6a, 0x3d, 0x4c, 0xa6, 0x5a, 0xbf, 0x7c, 0x69, 0x35, 0xbe,
  0xd8, 0x62, 0xa9, 0xbe, 0x67, 0x32, 0xf0, 0x3d, 0xb3, 0x39, 0x6b, 0xbe,
  0x2e, 0x50, 0x9e, 0xbe, 0xb8, 0xd1, 0x85, 0xbd, 0xc6, 0x64, 0x4b, 0xba,
  0x8a, 0xb4, 0x58, 0xbe, 0x68, 0x0c, 0xdb, 0x3d, 0xbf, 0x64, 0x40, 0xbe,
  0xc9, 0x33, 0x72, 0xbd, 0x59, 0x7d, 0x65, 0xbe, 0x9d, 0xba, 0xa0, 0xbe,
  0x23, 0xfa, 0x38, 0xbe, 0x6d, 0x0b, 0x89, 0x3d, 0x03, 0x0e, 0xa2, 0xbe,
  0x27, 0x3e, 0x85, 0xbd, 0x65, 0x28, 0xc7, 0xbd, 0xec, 0x3b, 0x48, 0x3e,
  0xd2, 0xa5, 0x21, 0xbe, 0x36, 0x8b, 0x9d, 0xbd, 0x0f, 0xd8, 0x43, 0xbe,
  0xa1, 0x97, 0x99, 0x3e, 0x2c, 0x14, 0x92, 0xbd, 0xea, 0x24, 0x9c, 0x3e,
  0xbf, 0x23, 0xb7, 0xbe, 0x01, 0xae, 0x27, 0xbe, 0x53, 0xdf, 0x84, 0xbd,
  0x79, 0x1e, 0x61, 0x3e, 0xcc, 0xfc, 0x84, 0xbc, 0x13, 0x95, 0x65, 0x3e,
  0x00, 0xcb, 0xab, 0xbe, 0x77, 0x14, 0xd4, 0x3c, 0x88, 0x19, 0xab, 0x3d,
  0x74, 0x98, 0xa6, 0xbd, 0x5b, 0xca, 0x04, 0x3e, 0xad, 0x04, 0xd2, 0xbd,
  0xf6, 0x23, 0x9c, 0xbe, 0x4a, 0x60, 0x24, 0x3e, 0x6d, 0x66, 0xcd, 0x3d,
  0xfb, 0x7b, 0x93, 0x3e, 0x9f, 0x78, 0x41, 0xbe, 0xaa, 0x98, 0xdd, 0xbd,
  0xca, 0x16, 0xb1, 0x3e, 0x35, 0x83, 0x94, 0xbc, 0x26, 0x4a, 0xc5, 0xbe,
  0x10, 0x21, 0xed, 0x3d, 0xd2, 0xae, 0x05, 0xbe, 0xb7, 0xa7, 0x23, 0x3e,
  0xb6, 0xe3, 0x96, 0xbd, 0x7b, 0xbe, 0x9e, 0x3d, 0x77, 0xb6, 0x8d, 0xbc,
  0x08, 0x15, 0x94, 0xbd, 0x43, 0xde, 0xbf, 0xbe, 0xc6, 0x4c, 0x65, 0x3d,
  0xe3, 0xd7, 0xda, 0xbc, 0xa5, 0xfc, 0x0c, 0xbe, 0x1e, 0xe5, 0x4b, 0xbd,
  0x51, 0x1d, 0x86, 0x3c, 0xd4, 0xee, 0x56, 0x3e, 0x8d, 0xf5, 0x7f, 0xbc,
  0x8b, 0x54, 0xa5, 0xbe, 0x41, 0x61, 0x8e, 0x3e, 0xa5, 0xd2, 0x2f, 0x3e,
  0xfe, 0xa7, 0xb1, 0x3e, 0x1f, 0x79, 0x77, 0x3e, 0x2a, 0x95, 0xa7, 0xbd,
  0x6b, 0x16, 0xcd, 0x3c, 0x8a, 0x92, 0x45, 0xbd, 0x0a, 0xf7, 0xa9, 0xbd,
  0x8a, 0xc2, 0x20, 0x3e, 0x2a, 0x8a, 0x5e, 0x3e, 0xde, 0xd0, 0x80, 0xbd,
  0xff, 0xce, 0x46, 0x3e, 0x4e, 0x15, 0x19, 0x3d, 0x09, 0x36, 0xca, 0x3d,
  0xed, 0xaa, 0x9f, 0xbe, 0xe8, 0x35, 0xf7, 0xbc, 0xba, 0x15, 0x93, 0xbe,
  0xd4, 0xf8, 0x3b, 0x3e, 0x2e, 0x0b, 0xc3, 0x3c, 0x33, 0x6a, 0xf5, 0xbb,
  0x78, 0x8c, 0x9e, 0x3c, 0x42, 0x58, 0xef, 0x3d, 0xa4, 0xb3, 0x89, 0xbe,
  0x40, 0x71, 0x12, 0x3c, 0xcd, 0x5d, 0x00, 0xbf, 0x33, 0x98, 0x94, 0xbd,
  0xeb, 0x00, 0xde, 0x3e, 0xe2, 0xd8, 0xae, 0xbe, 0xeb, 0xc1, 0x85, 0xbd,
  0xee, 0x6c, 0xab, 0xbe, 0x4d, 0x63, 0x79, 0x3e, 0x12, 0x8b, 0x31, 0xbd,
  0x8d, 0x07, 0x25, 0xbf, 0x1e, 0xe3, 0xb6, 0xbe, 0x92, 0x94, 0x8b, 0x3e,
  0x97, 0xec, 0x0e, 0x3e, 0xc9, 0x0f, 0x31, 0xbe, 0x3f, 0x16, 0xc4, 0x3d,
  0x12, 0x2b, 0x4d, 0x3e, 0x74, 0x7a, 0x47, 0xbd, 0xfa, 0xcc, 0xcd, 0x3e,
  0x81, 0xc7, 0x9a, 0x3d, 0x69, 0x21, 0x00, 0xbb, 0xaa, 0xa1, 0xf4, 0xbd,
  0x1e, 0x38, 0x93, 0xbd, 0xa4, 0x10, 0x83, 0xbe, 0x49, 0xae, 0x5d, 0xbd,
  0xbe, 0x5e, 0x98, 0xbd, 0x56, 0xa9, 0x9d, 0x3d, 0x69, 0x9b, 0x58, 0xbe,
  0x11, 0x94, 0x46, 0x3d, 0x0d, 0xf0, 0x2e, 0xbd, 0xd8, 0x3b, 0x1f, 0xbd,
  0x12, 0x65, 0xca, 0xbe, 0xdb, 0x45, 0xb0, 0xbe, 0x5e, 0xf5, 0x71, 0xba,
  0x80, 0x4e, 0x8c, 0x3e, 0x55, 0xd1, 0xd6, 0xbe, 0xce, 0x25, 0x8e, 0x3e,
  0x7c, 0xbf, 0x28, 0xbf, 0x4e, 0x62, 0x4f, 0x3e, 0xa6, 0xff, 0xfe, 0xbe,
  0xba, 0xfc, 0x7c, 0xbf, 0x04, 0x5c, 0x35, 0x3c, 0x97, 0xb8, 0x1a, 0xbf,
  0xc5, 0x74, 0x1f, 0xbd, 0x4d, 0x04, 0x71, 0x3e, 0xe1, 0x7b, 0x02, 0xbf,
  0x83, 0xdc, 0xda, 0xbd, 0xed, 0xa1, 0xb1, 0xbe, 0xe7, 0x61, 0xbf, 0x3e,
  0xa7, 0xeb, 0xc7, 0x3b, 0x5a, 0xcb, 0xca, 0x3e, 0xfa, 0x80, 0x43, 0xbf,
  0xe3, 0xce, 0xc5, 0x3c, 0xdd, 0x69, 0x9f, 0xbf, 0xfc, 0x33, 0xc8, 0xbd,
  0x10, 0xdd, 0x20, 0xbf, 0x8f, 0xfc, 0xc2, 0xbd, 0xf0, 0x09, 0xa4, 0xbc,
  0x27, 0x44, 0xcf, 0x3c, 0x4b, 0x95, 0x29, 0xbf, 0x93, 0x47, 0x0c, 0xbe,
  0xde, 0x66, 0x2c, 0xbe, 0x0d, 0x96, 0xb7, 0xbb, 0x7a, 0xdc, 0x08, 0x3e,
  0xb0, 0xe4, 0xe6, 0xbe, 0xb6, 0x8c, 0x30, 0xbd, 0xc5, 0xcf, 0x14, 0xbf,
  0x1a, 0x68, 0x9c, 0xbc, 0x99, 0x8e, 0xc7, 0x3d, 0xa3, 0x63, 0x53, 0x3e,
  0x47, 0xe3, 0x12, 0x3e, 0x58, 0x11, 0xa4, 0x3d, 0xc4, 0x0a, 0x32, 0xbe,
  0xe6, 0xc0, 0x12, 0xbd, 0xc1, 0xc5, 0x00, 0xbf, 0x4a, 0x9a, 0x84, 0x3e,
  0x6b, 0x90, 0x4a, 0x3e, 0xe2, 0xdd, 0xff, 0xff, 0x10, 0x00, 0x00, 0x00,
  0x0a, 0x00, 0x00, 0x00, 0x1c, 0x00, 0x00, 0x00, 0x38, 0x00, 0x00, 0x00,
  0x04, 0x00, 0x00, 0x00, 0x10, 0x00, 0x00, 0x00, 0x04, 0x00, 0x00, 0x00,
  0x01, 0x00, 0x00, 0x00, 0x08, 0x00, 0x00, 0x00, 0x1a, 0x00, 0x00, 0x00,
  0x73, 0x65, 0x71, 0x75, 0x65, 0x6e, 0x74, 0x69, 0x61, 0x6c, 0x2f, 0x63,
  0x6f, 0x6e, 0x76, 0x32, 0x64, 0x5f, 0x31, 0x2f, 0x43, 0x6f, 0x6e, 0x76,
  0x32, 0x44, 0x00, 0x00, 0x58, 0xdd, 0xff, 0xff, 0x62, 0xde, 0xff, 0xff,
  0x04, 0x00, 0x00, 0x00, 0x80, 0x01, 0x00, 0x00, 0x0e, 0xb8, 0x2a, 0xbe,
  0x83, 0x61, 0x1a, 0xbd, 0xc2, 0xdb, 0xe8, 0xbe, 0xb3, 0xe9, 0x60, 0xbd,
  0x98, 0xe6, 0x24, 0xbe, 0x5d, 0x10, 0x90, 0xbd, 0xf7, 0x47, 0x9d, 0xbd,
  0xb5, 0xcf, 0x80, 0x3d, 0x06, 0x08, 0xc5, 0xbd, 0xee, 0x3c, 0x32, 0xbe,
  0x1e, 0x86, 0xe8, 0x3d, 0xd5, 0xab, 0xca, 0xbe, 0x4c, 0x7e, 0x96, 0x3c,
  0x5a, 0x8b, 0x94, 0xbe, 0x2a, 0xd5, 0x48, 0x3b, 0x5d, 0xc6, 0x12, 0x3f,
  0x64, 0x3e, 0x9c, 0x3d, 0x2b, 0x60, 0x24, 0xbe, 0xc3, 0x89, 0xa1, 0x3e,
  0xac, 0x41, 0xab, 0x3d, 0x6b, 0x50, 0xb4, 0xbd, 0x34, 0x06, 0x38, 0x3e,
  0xfa, 0xdb, 0xac, 0xbe, 0xa6, 0x5e, 0x47, 0x3e, 0xa4, 0x6e, 0x5c, 0xbe,
  0x16, 0xb5, 0x87, 0xbe, 0x0d, 0xe9, 0x17, 0xbc, 0x7b, 0x66, 0x90, 0xbe,
  0x79, 0xf7, 0x0b, 0x3e, 0xb0, 0xf8, 0x15, 0xbe, 0xa6, 0xf8, 0xd5, 0xbe,
  0x9a, 0xf2, 0x4c, 0x3e, 0x2e, 0x8f, 0x92, 0xbe, 0x05, 0xdf, 0x14, 0xbe,
  0xb3, 0x01, 0x7a, 0xbe, 0x73, 0xdc, 0xbd, 0x3c, 0xd0, 0xbe, 0xb3, 0xbc,
  0x1c, 0x81, 0x4d, 0xbd, 0xed, 0x12, 0x0b, 0xbd, 0x7e, 0x04, 0x4e, 0xbe,
  0x3b, 0x8e, 0x11, 0xbd, 0xcd, 0x6e, 0xa4, 0xbc, 0x72, 0xae, 0xe7, 0xbe,
  0xa8, 0xd2, 0xfd, 0x3b, 0x28, 0x29, 0x1a, 0x3e, 0xdd, 0x8a, 0xd3, 0xbe,
  0xd8, 0xab, 0x27, 0xbe, 0xbe, 0xdf, 0xe9, 0xbc, 0xaf, 0xea, 0x29, 0x3d,
  0xa8, 0x17, 0x22, 0xbd, 0x45, 0xeb, 0xae, 0x3b, 0xcc, 0x84, 0x01, 0x3d,
  0x7f, 0x84, 0x26, 0xbd, 0x54, 0x9d, 0xef, 0x3c, 0x2b, 0xfd, 0x0d, 0x3d,
  0x82, 0x9c, 0x08, 0xbd, 0x59, 0x1a, 0x6a, 0x3d, 0x7b, 0xd5, 0xf2, 0xba,
  0x78, 0x3b, 0x0e, 0xbd, 0x7a, 0x0e, 0x2e, 0x3d, 0xec, 0xba, 0xb1, 0x3e,
  0x13, 0x23, 0xbe, 0xbe, 0x53, 0x32, 0x4c, 0xbe, 0x1c, 0xd4, 0x26, 0x3e,
  0x6e, 0xf7, 0xf0, 0xbe, 0xff, 0x7c, 0x17, 0xbe, 0x9f, 0xba, 0x6e, 0x3e,
  0xf0, 0x90, 0xf4, 0x3d, 0x22, 0xb1, 0x33, 0x3d, 0xd2, 0x52, 0x51, 0xbe,
  0x2f, 0x84, 0xe7, 0x3d, 0xea, 0x8c, 0x8a, 0xbd, 0xb6, 0x3a, 0x56, 0xbe,
  0x11, 0x57, 0x29, 0xbd, 0x5b, 0xb8, 0x31, 0xbd, 0x6c, 0x7f, 0xfb, 0xbd,
  0x92, 0xd4, 0xef, 0xbd, 0x6e, 0x9f, 0xc1, 0x3d, 0x21, 0xbf, 0x2f, 0xbe,
  0x0e, 0xc7, 0x9a, 0xbd, 0x9c, 0xf1, 0x99, 0xbe, 0xf5, 0xc0, 0x19, 0xbe,
  0x4f, 0x35, 0x35, 0x3e, 0x29, 0x76, 0x1b, 0xbf, 0xa6, 0xde, 0xc9, 0x3e,
  0x9f, 0x3c, 0x10, 0xbe, 0x36, 0xcb, 0x23, 0xbe, 0x51, 0x76, 0x6c, 0x3e,
  0x8f, 0x8d, 0xe4, 0xbd, 0x26, 0xe1, 0xc4, 0xbd, 0xa6, 0xa4, 0xca, 0xbd,
  0x71, 0x3f, 0xa9, 0xbc, 0xbf, 0x6a, 0x6c, 0x3d, 0x0d, 0xd1, 0x15, 0xbf,
  0x08, 0x22, 0x7b, 0x3e, 0x8c, 0xc4, 0x56, 0x3e, 0xba, 0xdf, 0xff, 0xff,
  0x10, 0x00, 0x00, 0x00, 0x09, 0x00, 0x00, 0x00, 0x1c, 0x00, 0x00, 0x00,
  0x38, 0x00, 0x00, 0x00, 0x04, 0x00, 0x00, 0x00, 0x08, 0x00, 0x00, 0x00,
  0x04, 0x00, 0x00, 0x00, 0x03, 0x00, 0x00, 0x00, 0x01, 0x00, 0x00, 0x00,
  0x18, 0x00, 0x00, 0x00, 0x73, 0x65, 0x71, 0x75, 0x65, 0x6e, 0x74, 0x69,
  0x61, 0x6c, 0x2f, 0x63, 0x6f, 0x6e, 0x76, 0x32, 0x64, 0x2f, 0x43, 0x6f,
  0x6e, 0x76, 0x32, 0x44, 0x00, 0x00, 0x00, 0x00, 0x30, 0xdf, 0xff, 0xff,
  0x3a, 0xe0, 0xff, 0xff, 0x04, 0x00, 0x00, 0x00, 0x00, 0x01, 0x00, 0x00,
  0x73, 0x82, 0x28, 0x3e, 0xa0, 0x46, 0x1d, 0xbf, 0xd6, 0xcf, 0x13, 0xbe,
  0x9c, 0x39, 0xb9, 0xbd, 0xd6, 0xf8, 0x84, 0xbd, 0xea, 0x22, 0x64, 0x3d,
  0x05, 0x22, 0xb6, 0x3e, 0xd9, 0x9f, 0x50, 0xbe, 0xab, 0x31, 0x81, 0x3e,
  0x29, 0xaf, 0xd9, 0x3c, 0x44, 0x5f, 0xfe, 0x3d, 0x28, 0xb0, 0x15, 0x3e,
  0x51, 0x89, 0x7f, 0xbe, 0xd0, 0x7d, 0x0e, 0xbe, 0x7a, 0x99, 0x6e, 0x3e,
  0x0f, 0xd9, 0x1d, 0x3e, 0xf3, 0x8e, 0x68, 0x3e, 0x32, 0xc6, 0x42, 0xbe,
  0xcc, 0xc3, 0x83, 0xbd, 0x80, 0x93, 0xb6, 0xbd, 0x75, 0xe1, 0xee, 0xbc,
  0x89, 0x9d, 0xbe, 0x3d, 0xd1, 0x49, 0x87, 0x3e, 0x43, 0x9f, 0xf4, 0xbd,
  0x48, 0x9c, 0xeb, 0x3d, 0xc8, 0x8d, 0xeb, 0x3d, 0xed, 0xb1, 0x4e, 0x3e,
  0xe2, 0xb6, 0x84, 0x3e, 0x60, 0x0b, 0xdb, 0x3d, 0x97, 0x9c, 0xdd, 0xbd,
  0x01, 0x75, 0x5a, 0x3e, 0xed, 0x98, 0x6d, 0x3e, 0x61, 0x20, 0x29, 0x3e,
  0x2a, 0x02, 0x95, 0xbd, 0x05, 0x7c, 0x12, 0xbe, 0x55, 0x96, 0x46, 0xbd,
  0x97, 0x8c, 0xcf, 0xbc, 0x12, 0x68, 0x46, 0x3e, 0xa5, 0x15, 0x96, 0x3e,
  0xf7, 0x2e, 0xf0, 0xbd, 0xd9, 0x0c, 0x10, 0x3e, 0xec, 0x37, 0x85, 0x3d,
  0xa2, 0x82, 0x76, 0x3e, 0x65, 0x09, 0x12, 0x3e, 0x1c, 0x1b, 0x90, 0x3e,
  0x39, 0x57, 0x7f, 0xbc, 0x7a, 0xe9, 0x09, 0x3e, 0x6b, 0xef, 0x28, 0x3e,
  0xf9, 0x36, 0xd9, 0x3d, 0xd5, 0x93, 0x87, 0x3d, 0xc7, 0xc6, 0x29, 0xbd,
  0x1d, 0xef, 0x76, 0x3c, 0xc9, 0x37, 0xd4, 0x3c, 0x8f, 0xfa, 0xe1, 0x3d,
  0x0f, 0xa8, 0x5d, 0x3e, 0x52, 0x34, 0x79, 0xbe, 0xd9, 0x31, 0x5f, 0x3e,
  0x02, 0x75, 0x0d, 0xbc, 0xa2, 0xef, 0x6d, 0x3d, 0x9a, 0x44, 0x64, 0x3e,
  0x0e, 0x76, 0x92, 0x3e, 0x96, 0xeb, 0xc9, 0xbd, 0x98, 0xdd, 0xbe, 0x3d,
  0x62, 0x25, 0x18, 0x3e, 0x12, 0xe1, 0xff, 0xff, 0x10, 0x00, 0x00, 0x00,
  0x08, 0x00, 0x00, 0x00, 0x14, 0x00, 0x00, 0x00, 0x30, 0x00, 0x00, 0x00,
  0x02, 0x00, 0x00, 0x00, 0x04, 0x00, 0x00, 0x00, 0x10, 0x00, 0x00, 0x00,
  0x19, 0x00, 0x00, 0x00, 0x73, 0x65, 0x71, 0x75, 0x65, 0x6e, 0x74, 0x69,
  0x61, 0x6c, 0x2f, 0x64, 0x65, 0x6e, 0x73, 0x65, 0x5f, 0x31, 0x2f, 0x4d,
  0x61, 0x74, 0x4d, 0x75, 0x6c, 0x00, 0x00, 0x00, 0x80, 0xe0, 0xff, 0xff,
  0x8a, 0xe1, 0xff, 0xff, 0x04, 0x00, 0x00, 0x00, 0x00, 0x1c, 0x00, 0x00,
  0x64, 0x91, 0x96, 0x3e, 0x08, 0xc9, 0x1b, 0xbe, 0x1b, 0xa9, 0x3e, 0x3e,
  0x62, 0xb1, 0x19, 0xbe, 0x0f, 0x85, 0xbd, 0xbd, 0xe7, 0xf1, 0x38, 0xbe,
  0x6a, 0x65, 0x2e, 0x3d, 0xce, 0xb7, 0x73, 0x3e, 0xba, 0xaf, 0xd9, 0x3c,
  0x48, 0xf3, 0xfc, 0xbd, 0x0e, 0xc0, 0x27, 0xbd, 0xc0, 0x26, 0x1f, 0xbe,
  0xae, 0x1a, 0x77, 0x3c, 0xd3, 0x0b, 0xa3, 0x3d, 0xcb, 0x1b, 0x22, 0x3d,
  0xe3, 0x1c, 0x8d, 0xbd, 0x69, 0x2a, 0x92, 0x3e, 0x99, 0x7d, 0xce, 0xbd,
  0xf1, 0x62, 0xe2, 0x3d, 0xb2, 0x72, 0x1c, 0xbe, 0xa7, 0x28, 0xa5, 0x3d,
  0xe2, 0xbc, 0x4e, 0xbe, 0x01, 0x43, 0x47, 0xbe, 0x59, 0xcf, 0x2b, 0xbd,
  0x64, 0xbb, 0xf3, 0x3d, 0x94, 0x03, 0x4d, 0xbe, 0xd7, 0x2c, 0xdb, 0x3d,
  0x37, 0x6d, 0xd8, 0x3d, 0xda, 0xc5, 0x46, 0xbe, 0x08, 0xba, 0x0f, 0x3e,
  0xd2, 0xad, 0xdd, 0x3d, 0xa1, 0x70, 0xe4, 0xbc, 0xbb, 0xd9, 0xe0, 0x3d,
  0xc4, 0x86, 0xa2, 0x3d, 0x5c, 0x06, 0x33, 0x3d, 0xd7, 0x37, 0x11, 0xbe,
  0x0c, 0xed, 0xa1, 0xbd, 0x37, 0x17, 0x0d, 0xbe, 0xde, 0x20, 0xf8, 0xbc,
  0xb5, 0xa9, 0x20, 0x3e, 0x7e, 0x71, 0x80, 0x3e, 0x68, 0xe1, 0x98, 0xbd,
  0x54, 0x1c, 0x9f, 0x3d, 0xc0, 0x1e, 0x96, 0x3e, 0x61, 0x5e, 0x59, 0xbc,
  0x77, 0x65, 0x43, 0x3e, 0xd3, 0xb9, 0x9d, 0x3d, 0xf9, 0x91, 0x16, 0xbc,
  0x25, 0x96, 0x76, 0x3e, 0x60, 0x92, 0xb5, 0xbd, 0xdb, 0xc7, 0xcf, 0xbc,
  0xfe, 0x29, 0x1b, 0xbc, 0x60, 0x62, 0x99, 0xbd, 0xae, 0xe8, 0xee, 0xbb,
  0xdd, 0x11, 0x34, 0xbe, 0xb8, 0x44, 0x51, 0x3e, 0x8d, 0x7d, 0x64, 0x3e,
  0xe6, 0x39, 0xda, 0xbd, 0xa3, 0xb3, 0xa7, 0xbd, 0xc0, 0xb7, 0xbf, 0xbd,
  0xcf, 0xbf, 0x57, 0xbe, 0x6c, 0x5d, 0x14, 0x3e, 0xa3, 0xf3, 0x52, 0xbe,
  0x48, 0xd3, 0x3c, 0x3d, 0x14, 0x1b, 0x79, 0x3e, 0x99, 0x50, 0x4c, 0x3d,
  0xb5, 0x62, 0x2d, 0xbe, 0x48, 0xf3, 0xd2, 0xbd, 0xea, 0xb6, 0x3d, 0xbe,
  0x3b, 0x74, 0xb0, 0xbd, 0xce, 0x57, 0xa3, 0xbc, 0x03, 0x40, 0x98, 0x3e,
  0x25, 0xd5, 0x2b, 0x3e, 0x0b, 0x96, 0xc3, 0xbd, 0xd7, 0x0f, 0x03, 0xbe,
  0x42, 0xb5, 0x35, 0xbd, 0x66, 0xac, 0x2a, 0x3e, 0x33, 0xe4, 0x75, 0x3e,
  0xfc, 0x29, 0x06, 0x3e, 0x47, 0x17, 0x9d, 0xbd, 0xc9, 0x11, 0x98, 0x3e,
  0x10, 0x72, 0xf5, 0xbd, 0x44, 0x6c, 0xfd, 0xbc, 0x83, 0x59, 0x14, 0xbd,
  0xf2, 0xfe, 0xf5, 0x3d, 0xb5, 0x37, 0x01, 0xbe, 0xc6, 0x8b, 0x94, 0xbe,
  0xff, 0xd4, 0xc2, 0x3d, 0x67, 0x12, 0x55, 0x3d, 0x43, 0xaa, 0x30, 0xbe,
  0x09, 0xd4, 0x20, 0x3d, 0x9c, 0x33, 0x57, 0x3d, 0xc8, 0xee, 0x9d, 0xbe,
  0x0c, 0xf7, 0x70, 0x3d, 0x9c, 0x69, 0xd9, 0x3d, 0x93, 0x9b, 0x81, 0xbd,
  0x91, 0xe7, 0x25, 0xbe, 0x70, 0x3c, 0x60, 0x3d, 0xee, 0xe2, 0x10, 0xbf,
  0x52, 0xb6, 0xab, 0xbd, 0x4d, 0xb4, 0xcb, 0x3c, 0xa0, 0x11, 0xd7, 0xbc,
  0x00, 0x38, 0x98, 0x3d, 0x24, 0x49, 0xe2, 0xbd, 0xc3, 0x0d, 0x01, 0x3e,
  0xde, 0x69, 0x81, 0xbe, 0x62, 0xa8, 0xfc, 0xbd, 0xed, 0x84, 0x15, 0xbd,
  0x69, 0x74, 0xc4, 0xbe, 0x4e, 0xad, 0x1e, 0xbe, 0x50, 0x1a, 0x02, 0xbe,
  0x26, 0x54, 0x7f, 0xbe, 0x2c, 0xa0, 0xa2, 0xbc, 0xf2, 0xd6, 0xc7, 0xbe,
  0x82, 0x1c, 0xdd, 0xbd, 0xca, 0x70, 0x58, 0x3d, 0xa6, 0x16, 0x0a, 0x3e,
  0xf8, 0x46, 0x30, 0xbd, 0x20, 0xb3, 0xeb, 0x3d, 0x89, 0xe3, 0x97, 0xbd,
  0x74, 0xa6, 0xa1, 0xbd, 0x11, 0x68, 0x6b, 0xbe, 0x84, 0xc9, 0x0e, 0x3e,
  0xfd, 0x7f, 0x89, 0x3e, 0x8e, 0x26, 0x25, 0x3e, 0x88, 0x35, 0x96, 0xbe,
  0xdc, 0x7d, 0x2f, 0xbe, 0x60, 0x5d, 0x7f, 0x3d, 0xb0, 0x05, 0x5a, 0x3b,
  0x8a, 0x30, 0x8f, 0xbe, 0x7f, 0x26, 0x4c, 0x3d, 0xb5, 0xae, 0xa6, 0x3d,
  0xc7, 0x33, 0x85, 0xbd, 0x1e, 0x13, 0x4a, 0xbe, 0x9f, 0xc8, 0xac, 0x3d,
  0x38, 0x32, 0x5b, 0xbe, 0x3b, 0xc3, 0x46, 0x3d, 0x85, 0xcc, 0xad, 0xbd,
  0xa4, 0xaf, 0x89, 0xbc, 0x51, 0x81, 0x6a, 0x3e, 0x2b, 0x81, 0xb4, 0x3e,
  0x2e, 0x35, 0xba, 0xbd, 0xbf, 0x78, 0x35, 0xbd, 0xda, 0x02, 0xc9, 0xbc,
  0x71, 0x54, 0x4e, 0x3c, 0x7d, 0x12, 0xd3, 0xbd, 0x6f, 0xa7, 0xee, 0xbd,
  0x92, 0x20, 0x5a, 0x3d, 0x57, 0xbb, 0x29, 0xbe, 0x54, 0x5c, 0xeb, 0x3d,
  0x31, 0xe4, 0x98, 0xbd, 0xa8, 0x1f, 0xa8, 0xbd, 0xd7, 0x1b, 0x5e, 0xbe,
  0xd8, 0xdc, 0x2c, 0xbe, 0x18, 0x2b, 0x30, 0xbd, 0x5f, 0x40, 0xfd, 0x3d,
  0x60, 0x60, 0x23, 0x3e, 0x71, 0x98, 0x1d, 0x3b, 0x8d, 0x4c, 0x18, 0x3d,
  0xe2, 0x34, 0x93, 0xbd, 0xfc, 0x39, 0x25, 0xbd, 0x0a, 0x66, 0x37, 0xbe,
  0xd2, 0x19, 0x2b, 0xbd, 0x0b, 0x6b, 0xf2, 0x3d, 0xdc, 0xf7, 0x4f, 0xbe,
  0xa4, 0x0f, 0xaf, 0xbc, 0x4f, 0xff, 0xc8, 0x3d, 0x13, 0x72, 0x51, 0xbb,
  0x2c, 0xe6, 0x43, 0x3e, 0x99, 0xa9, 0x84, 0xbd, 0xfd, 0x96, 0x54, 0xbd,
  0x1f, 0xb3, 0xb5, 0x3e, 0xb2, 0xfa, 0x68, 0x3e, 0x16, 0x94, 0x6f, 0xbe,
  0x16, 0xab, 0x59, 0x3d, 0xef, 0xb2, 0x96, 0x3d, 0x84, 0xf4, 0x1a, 0x3c,
  0xd3, 0xc9, 0x52, 0xbe, 0xf1, 0x73, 0x49, 0xbe, 0x4f, 0x1b, 0x18, 0xbc,
  0x49, 0x7b, 0x93, 0xbd, 0xf1, 0x46, 0x27, 0xbe, 0x4f, 0xf1, 0x8d, 0x3e,
  0xf2, 0x52, 0x3e, 0x3e, 0x28, 0x19, 0xb8, 0x3d, 0xb5, 0xe5, 0x96, 0xbd,
  0xd3, 0x96, 0x16, 0xbe, 0x3a, 0xce, 0x09, 0x3e, 0xa5, 0x6d, 0x96, 0x3a,
  0xc4, 0x5a, 0xaf, 0xbd, 0xc1, 0x84, 0xf4, 0x3c, 0x4e, 0xf6, 0xb7, 0xbd,
  0xbc, 0x13, 0x3e, 0xbd, 0xb5, 0x77, 0xa6, 0xbe, 0x3a, 0xf0, 0xc0, 0x3d,
  0xb7, 0x4b, 0xca, 0x3d, 0x41, 0xc8, 0x61, 0xbe, 0xe7, 0x93, 0x38, 0xbd,
  0x06, 0x68, 0x3a, 0x3e, 0xb8, 0xf3, 0x2e, 0xbd, 0xa3, 0x04, 0x0e, 0x3e,
  0x78, 0x21, 0x8d, 0xbe, 0xc9, 0xfd, 0x9b, 0x3b, 0x13, 0x80, 0x07, 0xbe,
  0x6a, 0x33, 0x1c, 0x3d, 0x92, 0x67, 0xd5, 0xbd, 0x70, 0x96, 0xa5, 0x3c,
  0xe7, 0x7b, 0x82, 0xbd, 0x02, 0xa4, 0x6c, 0xbc, 0xd6, 0x37, 0x94, 0xbe,
  0x75, 0x1d, 0xfc, 0xbd, 0x77, 0xf8, 0x92, 0x3d, 0xd4, 0x33, 0x6a, 0xbe,
  0x2a, 0xa8, 0xe5, 0xbd, 0xa3, 0x67, 0x90, 0xbd, 0x5a, 0x45, 0x01, 0xbb,
  0x88, 0xa4, 0xb1, 0xbc, 0x79, 0x5e, 0x74, 0xbe, 0x41, 0xf0, 0x86, 0xbd,
  0xe2, 0x48, 0x35, 0xbd, 0x04, 0x1a, 0xd2, 0x3d, 0xc5, 0x5f, 0xba, 0xbd,
  0xed, 0x5d, 0x88, 0xbd, 0x9b, 0xcd, 0x42, 0xbe, 0x5a, 0x32, 0x6c, 0xbe,
  0x50, 0x9a, 0xaa, 0x3d, 0x17, 0x22, 0x87, 0x3d, 0x9e, 0x99, 0xd3, 0x3d,
  0x6b, 0xe1, 0x50, 0x3e, 0xc8, 0xb5, 0xf2, 0xbd, 0xf7, 0xef, 0x00, 0x3e,
  0x62, 0x47, 0x29, 0x3d, 0x6b, 0x7f, 0xb9, 0x3d, 0x8c, 0x38, 0xa8, 0xbd,
  0x34, 0xbc, 0xf6, 0x3e, 0x36, 0x3c, 0xd2, 0x3e, 0x2e, 0xfa, 0x9e, 0x3d,
  0x85, 0xf4, 0x2f, 0xbf, 0x8b, 0x95, 0x8d, 0xbe, 0x04, 0x81, 0x74, 0xbe,
  0xde, 0xbf, 0x8c, 0xbd, 0xf4, 0x6e, 0x18, 0x3d, 0x40, 0x21, 0x21, 0x3e,
  0x95, 0x91, 0xce, 0x3d, 0x03, 0x6e, 0x0a, 0xbe, 0xc7, 0xd9, 0xec, 0xbe,
  0x2b, 0x1a, 0x46, 0xbb, 0x81, 0xef, 0xb9, 0x3e, 0x1f, 0x5c, 0x1d, 0xbe,
  0x05, 0x22, 0xb4, 0xbe, 0xa2, 0xf2, 0x3e, 0xbe, 0x91, 0x1d, 0x33, 0x3e,
  0x35, 0x40, 0x0a, 0x3e, 0x8f, 0x99, 0x6a, 0xbe, 0x5e, 0x5e, 0x81, 0xbd,
  0x23, 0xda, 0x18, 0xbf, 0xd6, 0x49, 0x15, 0x3e, 0xa5, 0x58, 0x0c, 0xbc,
  0x98, 0x03, 0x2c, 0x3e, 0x1a, 0xf5, 0xd8, 0x3d, 0x55, 0x18, 0x36, 0x3d,
  0x16, 0x95, 0x5e, 0xbe, 0xe5, 0x30, 0x17, 0x3d, 0x3f, 0x9f, 0xb4, 0x3e,
  0xf7, 0x6d, 0x94, 0xbe, 0x6f, 0xd5, 0xdb, 0xbd, 0x6e, 0xef, 0xdb, 0xbc,
  0x7b, 0xc8, 0x89, 0xba, 0x80, 0x0d, 0xc0, 0x3d, 0x7a, 0x24, 0xe7, 0xbb,
  0xaf, 0xa9, 0x67, 0x3e, 0xdb, 0x5c, 0x5a, 0xbe, 0x6c, 0x21, 0x81, 0x3e,
  0xa2, 0x42, 0x12, 0x3c, 0xbc, 0x60, 0x01, 0x3d, 0xa2, 0xc7, 0x11, 0x3e,
  0xda, 0xf8, 0x86, 0x3e, 0xab, 0x6e, 0xc1, 0xbe, 0xe3, 0x41, 0xa3, 0x3e,
  0x9c, 0x50, 0xb4, 0x3e, 0xe6, 0x1b, 0x13, 0xbe, 0x1b, 0xdd, 0x5b, 0xbe,
  0x39, 0xcd, 0xf7, 0x3b, 0xa3, 0xc9, 0x4e, 0x3e, 0x61, 0x69, 0x59, 0x3e,
  0xcb, 0x78, 0x31, 0x3e, 0x21, 0xea, 0x5b, 0x3d, 0xa3, 0x0c, 0x27, 0xbe,
  0x61, 0x9c, 0x3a, 0x3e, 0xbf, 0x9a, 0x06, 0x3e, 0xb7, 0x77, 0x4e, 0xbd,
  0x0d, 0x5f, 0x22, 0x3e, 0xa8, 0xd0, 0x0b, 0x3e, 0x83, 0x33, 0x42, 0xbe,
  0xd3, 0xe9, 0x8e, 0x3e, 0x55, 0x4b, 0x57, 0x3d, 0xcb, 0xe3, 0xce, 0xbb,
  0x23, 0x75, 0x8f, 0xbe, 0x40, 0x2f, 0x12, 0x3d, 0xd8, 0x1a, 0xa2, 0x3d,
  0x71, 0x99, 0x2c, 0x3e, 0x11, 0x4b, 0x92, 0x3d, 0x8f, 0x73, 0x15, 0x3e,
  0x67, 0x99, 0xd4, 0xbe, 0xc4, 0x0f, 0x9d, 0xbe, 0x3e, 0xfc, 0x81, 0x3d,
  0x8a, 0x29, 0x29, 0xbe, 0xff, 0xef, 0xa8, 0x3d, 0xeb, 0x9b, 0x0c, 0x3e,
  0xa0, 0xa5, 0x7a, 0xbe, 0x59, 0xf7, 0x0b, 0x3e, 0x2c, 0xb3, 0x68, 0x3c,
  0x75, 0x2d, 0xb6, 0x3c, 0x06, 0x45, 0xe7, 0xbe, 0xbe, 0xc2, 0x79, 0x3d,
  0x77, 0x9d, 0xd2, 0x3d, 0xca, 0x76, 0x46, 0x3d, 0x21, 0x48, 0x84, 0xbd,
  0xf5, 0xdc, 0x46, 0x3d, 0x93, 0x81, 0x5e, 0xbe, 0xf8, 0x55, 0x48, 0xbd,
  0x7c, 0x5c, 0xf2, 0x3d, 0x77, 0x9c, 0x81, 0xbc, 0xad, 0x0f, 0x83, 0x3d,
  0xfe, 0x33, 0x23, 0x3d, 0x84, 0x21, 0x37, 0xbe, 0x7e, 0x8a, 0x4d, 0x3e,
  0xe9, 0xc7, 0x4d, 0x3d, 0xe9, 0x96, 0xdd, 0x3c, 0xb5, 0x1b, 0x88, 0xbe,
  0xe8, 0x53, 0xe4, 0x3d, 0x39, 0x29, 0x69, 0x3e, 0x18, 0xe0, 0x84, 0x3d,
  0xcc, 0x1c, 0xee, 0xbd, 0x05, 0xd1, 0x05, 0xbe, 0xa3, 0x46, 0x83, 0xbe,
  0x86, 0x99, 0x2d, 0xbe, 0xaf, 0xf2, 0xfc, 0x3d, 0x9f, 0x2e, 0x09, 0x3d,
  0x4a, 0x89, 0xb5, 0xbb, 0x34, 0x5c, 0xbc, 0x3d, 0xb2, 0xb8, 0x05, 0xbc,
  0xd7, 0x19, 0x90, 0x3e, 0x7f, 0xe1, 0xfd, 0xbd, 0xfe, 0xca, 0xd3, 0xbc,
  0x66, 0x5c, 0x81, 0xbd, 0xe6, 0x6d, 0x4d, 0x3f, 0xde, 0x3a, 0x1b, 0x3e,
  0x6b, 0x8f, 0x20, 0xbe, 0x11, 0xf1, 0xb0, 0xbe, 0x3d, 0xed, 0xea, 0xbe,
  0x86, 0xa6, 0x00, 0xbf, 0xef, 0x06, 0x2b, 0xbd, 0xe5, 0x3d, 0xb2, 0x3d,
  0xf6, 0x40, 0x12, 0x3e, 0xb1, 0x17, 0x0e, 0x3e, 0xc4, 0x15, 0x79, 0xbe,
  0x39, 0x70, 0xbe, 0xbd, 0x71, 0x26, 0x7a, 0x3d, 0x4e, 0xcf, 0x9e, 0xbc,
  0x98, 0x83, 0x03, 0xbe, 0xba, 0x17, 0xdd, 0xbe, 0xf8, 0x86, 0x28, 0xbe,
  0x0a, 0xd6, 0xf4, 0x3c, 0xa5, 0x0d, 0xa1, 0x3e, 0x91, 0x2f, 0xa5, 0xbe,
  0xa2, 0x80, 0x0a, 0xbf, 0xb0, 0x46, 0x06, 0xbf, 0xd1, 0x24, 0x51, 0x3d,
  0x64, 0x90, 0x6b, 0xbc, 0xaa, 0x90, 0x1c, 0x3e, 0x7e, 0x02, 0x02, 0x3e,
  0x42, 0xf3, 0xa5, 0xbd, 0x09, 0xf3, 0x74, 0xbc, 0x29, 0x62, 0xc6, 0x3d,
  0xa6, 0x4f, 0x58, 0x3d, 0x40, 0x3a, 0xab, 0xbd, 0xcd, 0xe1, 0x0e, 0xbf,
  0x72, 0xfd, 0x80, 0xbd, 0xc7, 0x0b, 0x95, 0xbd, 0x6e, 0x85, 0x79, 0x3e,
  0x9a, 0x8d, 0x8c, 0xbe, 0xab, 0x19, 0x82, 0xbe, 0x9b, 0xfa, 0xa9, 0xbe,
  0x97, 0xcb, 0xcf, 0x3d, 0xb0, 0x3a, 0x02, 0x3e, 0xe6, 0x16, 0x17, 0x3e,
  0xba, 0x25, 0xd9, 0x3c, 0xe1, 0x17, 0x97, 0x3b, 0x04, 0x95, 0xfe, 0x3d,
  0x77, 0xa6, 0x0a, 0x3e, 0x00, 0x5d, 0x94, 0x3d, 0xd5, 0x9e, 0x4c, 0xbd,
  0x6c, 0xe0, 0xd8, 0xbe, 0x68, 0x3b, 0xc6, 0x3c, 0x09, 0xfb, 0x94, 0x3e,
  0x29, 0xe2, 0x95, 0x3e, 0xfe, 0x59, 0xea, 0xbe, 0xbb, 0x1f, 0xcd, 0xbe,
  0x8b, 0x1e, 0x81, 0xbe, 0x09, 0x96, 0x2a, 0x3e, 0xf0, 0xb4, 0x8e, 0x3d,
  0x16, 0x85, 0x2e, 0x3d, 0xcb, 0xcc, 0x3f, 0x3e, 0x44, 0x1e, 0xca, 0x3d,
  0xc3, 0x9b, 0x98, 0x3d, 0x8e, 0xc0, 0x21, 0x3e, 0xe6, 0xb9, 0x29, 0x3e,
  0x2a, 0xff, 0xd1, 0x3d, 0xeb, 0xda, 0xd7, 0xbe, 0x23, 0x6d, 0x84, 0xbb,
  0x57, 0xa9, 0xb4, 0x3e, 0x6e, 0x64, 0x9a, 0x3d, 0x60, 0xf3, 0x1d, 0xbf,
  0xfc, 0x7a, 0xb8, 0xbe, 0x5c, 0x38, 0x0d, 0xbf, 0x80, 0x0a, 0xaa, 0xbd,
  0x62, 0x56, 0xa7, 0x3d, 0xb1, 0x40, 0xe6, 0x3c, 0x00, 0x12, 0xe5, 0x3d,
  0x02, 0xd6, 0xea, 0x3c, 0xcb, 0xb3, 0xa5, 0xbc, 0xc6, 0x25, 0x59, 0x3e,
  0xe8, 0x47, 0x1e, 0xbf, 0x28, 0x94, 0xc5, 0xbd, 0x2d, 0x3e, 0x3c, 0xbf,
  0x1c, 0x26, 0xde, 0x3c, 0xcd, 0x94, 0x44, 0x3c, 0xb8, 0x3e, 0x83, 0xbd,
  0x12, 0x28, 0x0e, 0x3e, 0x0b, 0x25, 0xde, 0xbe, 0xfd, 0x46, 0x38, 0xbf,
  0xb8, 0x40, 0xec, 0xbc, 0x08, 0x68, 0x79, 0x3d, 0x03, 0x16, 0x6e, 0xbd,
  0x74, 0x20, 0xc4, 0x3b, 0xa7, 0x2a, 0x70, 0xbe, 0xfd, 0xb6, 0x90, 0xbe,
  0xb7, 0xb5, 0xf3, 0x3e, 0xc5, 0x7d, 0x14, 0xbf, 0x97, 0x21, 0x8b, 0xbe,
  0x84, 0x5f, 0xd2, 0xbe, 0x11, 0xa5, 0x88, 0x3d, 0x28, 0x6f, 0x5f, 0x3e,
  0x62, 0xdf, 0x85, 0x3b, 0x5b, 0x1c, 0xf6, 0xbc, 0x26, 0x8c, 0x8a, 0x3c,
  0x57, 0x2a, 0xc2, 0xbe, 0xd4, 0x1a, 0x5e, 0xbe, 0x4a, 0xb6, 0x9c, 0x3d,
  0xc4, 0xc5, 0xfd, 0x3c, 0x06, 0xf0, 0x3f, 0x3e, 0x9b, 0x4c, 0xb9, 0x3e,
  0x79, 0xd5, 0x5d, 0x3c, 0x9b, 0x89, 0xcc, 0x3e, 0x4e, 0x9b, 0x40, 0xbe,
  0x59, 0x1a, 0x20, 0xbe, 0xfc, 0x66, 0x87, 0x3c, 0x5e, 0x73, 0x00, 0x3f,
  0x17, 0x9f, 0x99, 0x3d, 0x7d, 0xf8, 0x41, 0x3e, 0x40, 0xce, 0xcf, 0xbe,
  0x92, 0x1b, 0x3b, 0xbe, 0x53, 0x45, 0x51, 0xbe, 0x1d, 0x54, 0xa7, 0x3c,
  0x63, 0x90, 0xf9, 0xbd, 0x28, 0x54, 0x86, 0x3d, 0xc4, 0x41, 0x2f, 0x3c,
  0x9e, 0x8e, 0x75, 0xbd, 0xb9, 0xf2, 0xac, 0xbd, 0xb4, 0xe5, 0xf9, 0x3d,
  0xd5, 0x71, 0x0b, 0xbe, 0x0a, 0x51, 0x72, 0xbd, 0x53, 0x71, 0x72, 0xbe,
  0x45, 0x65, 0x26, 0xbc, 0x25, 0x82, 0xf8, 0x3d, 0x08, 0x57, 0x86, 0x3e,
  0x69, 0xa2, 0xdc, 0xbe, 0x97, 0x0d, 0xa2, 0xbe, 0x10, 0xa7, 0x88, 0xbe,
  0xbf, 0x38, 0xc0, 0x3c, 0x58, 0x54, 0xc2, 0xbd, 0x07, 0xcb, 0x44, 0x3d,
  0xf5, 0x9f, 0xae, 0xbd, 0xa6, 0x46, 0x38, 0x3d, 0xbf, 0xe8, 0x59, 0x3d,
  0xb8, 0x4a, 0x20, 0x3e, 0xf9, 0x9f, 0x0f, 0xbe, 0xa1, 0x34, 0x24, 0xbd,
  0x08, 0x34, 0x14, 0x3c, 0x8e, 0x6f, 0x64, 0x3d, 0x06, 0xe4, 0x7d, 0x3d,
  0x54, 0xbf, 0xa3, 0x3e, 0x8c, 0x80, 0x25, 0xbe, 0xd3, 0xea, 0x7d, 0x3d,
  0x75, 0x6f, 0xf8, 0xbd, 0x89, 0xe4, 0xdc, 0x3d, 0x52, 0x56, 0x07, 0xbe,
  0x65, 0x0d, 0xe1, 0xbd, 0x6a, 0xf5, 0x11, 0x3e, 0x37, 0x8f, 0x30, 0x3c,
  0xb6, 0x5b, 0x20, 0xbd, 0xf3, 0x92, 0x28, 0x3e, 0x88, 0xbc, 0x2b, 0x3e,
  0x77, 0x22, 0x8d, 0x3c, 0xb7, 0xc5, 0x83, 0xbe, 0x2a, 0x7d, 0xdf, 0x3d,
  0xe6, 0xa6, 0xf5, 0x3d, 0x4f, 0x4e, 0x19, 0x3e, 0x2f, 0x21, 0xa5, 0xbe,
  0x60, 0x38, 0x3e, 0xbe, 0x93, 0x84, 0x98, 0xbe, 0x5c, 0xb6, 0x08, 0x3d,
  0xcd, 0x42, 0x10, 0xbe, 0x02, 0x75, 0x58, 0x3d, 0x02, 0x19, 0x9c, 0x3d,
  0x43, 0x21, 0x89, 0x3d, 0xdd, 0xb6, 0x88, 0x3d, 0xda, 0xcb, 0x7e, 0x3e,
  0x78, 0xf8, 0x8d, 0x3e, 0x3e, 0x8e, 0xee, 0x3d, 0xfa, 0x8d, 0x57, 0xbe,
  0x69, 0xef, 0x25, 0x3e, 0x4b, 0x21, 0x1e, 0xbd, 0x2f, 0x77, 0x8d, 0x3e,
  0x87, 0xcf, 0x82, 0xbe, 0x19, 0x51, 0x35, 0xbd, 0x82, 0x61, 0xda, 0xbe,
  0xc6, 0x7a, 0x47, 0xbd, 0xd4, 0x1f, 0xa7, 0x3d, 0x6b, 0x63, 0x19, 0xbd,
  0x40, 0x4b, 0xfc, 0x3d, 0x49, 0x04, 0xae, 0x3b, 0xd6, 0x90, 0xb1, 0xbd,
  0x44, 0x2b, 0x9b, 0x3e, 0x80, 0x04, 0x89, 0xbe, 0xbc, 0xc0, 0x14, 0xbd,
  0x45, 0x3d, 0x07, 0xbf, 0xfc, 0x61, 0x30, 0x3d, 0xc7, 0x00, 0x89, 0xbd,
  0x0a, 0xbe, 0x86, 0x3e, 0x2e, 0x23, 0xf3, 0xbe, 0x3e, 0xae, 0x80, 0xbc,
  0x20, 0x90, 0xad, 0xbe, 0x20, 0xce, 0x06, 0x3e, 0x50, 0x22, 0x29, 0x3d,
  0x34, 0x44, 0x0b, 0xbd, 0x9f, 0x14, 0xcd, 0xbd, 0x31, 0xab, 0xfd, 0x3b,
  0xcd, 0xd9, 0x61, 0xbd, 0xaf, 0xf4, 0xcb, 0x3e, 0xcf, 0xe6, 0x32, 0xbe,
  0xe1, 0x5c, 0x2b, 0xbe, 0xf0, 0xfd, 0x25, 0xbe, 0x66, 0x1d, 0x1a, 0x3e,
  0xdb, 0x7c, 0xad, 0x3e, 0x32, 0x9c, 0xc1, 0x3b, 0x97, 0xc0, 0x5a, 0xbd,
  0x7f, 0x70, 0x4b, 0x3d, 0xdc, 0xc0, 0xdd, 0x3b, 0x12, 0x1f, 0x08, 0xbf,
  0xe3, 0x74, 0xa4, 0xbe, 0xeb, 0x10, 0xc0, 0x3d, 0x0e, 0x7e, 0xf1, 0xbe,
  0xd5, 0xcf, 0x24, 0x3e, 0x20, 0xad, 0xf3, 0x3c, 0x50, 0x61, 0x24, 0x3e,
  0xcd, 0xd8, 0x03, 0xbe, 0xb3, 0x4a, 0xa9, 0xbe, 0x2d, 0x1e, 0x38, 0x3d,
  0x81, 0x58, 0x71, 0xbe, 0x0b, 0x8e, 0x20, 0x3e, 0x66, 0xed, 0xad, 0x3d,
  0x8a, 0xce, 0x66, 0x3e, 0xd5, 0xc0, 0x08, 0xbf, 0x67, 0x64, 0x5a, 0xbe,
  0x6c, 0xb0, 0x39, 0xbc, 0x15, 0x05, 0x8c, 0x3d, 0x04, 0xfa, 0x69, 0x3d,
  0x94, 0xfe, 0x9a, 0xbe, 0x60, 0x4f, 0x85, 0xbc, 0x3d, 0x36, 0x2f, 0x3e,
  0x74, 0x6e, 0xc6, 0x3d, 0xeb, 0x82, 0x2a, 0xbd, 0xaa, 0xa6, 0xd2, 0x3e,
  0xbb, 0x4e, 0x52, 0x3d, 0xc4, 0xe7, 0xf4, 0x3b, 0x3c, 0x8a, 0xeb, 0x3d,
  0xd4, 0x9d, 0x34, 0x3e, 0xa4, 0x9d, 0x3a, 0x3e, 0x86, 0x50, 0xe9, 0xbe,
  0x43, 0xfd, 0xe0, 0xbc, 0x55, 0xed, 0x27, 0xbe, 0xb7, 0x01, 0x2e, 0xbd,
  0x87, 0x4d, 0x04, 0xbd, 0xe1, 0x5f, 0x42, 0xbe, 0xd6, 0xf9, 0xe2, 0xbd,
  0x3b, 0x2e, 0x51, 0x3e, 0xbc, 0x17, 0x57, 0x3e, 0xfe, 0xba, 0x44, 0x3d,
  0x7a, 0x20, 0xdb, 0x3d, 0x78, 0x71, 0x84, 0x3d, 0x45, 0x90, 0x84, 0x3d,
  0x27, 0x23, 0x10, 0x3e, 0x45, 0x4b, 0x64, 0x3e, 0x65, 0x90, 0xd5, 0x3d,
  0x8a, 0xa1, 0x96, 0xbe, 0x45, 0x95, 0xb5, 0x3a, 0x54, 0xc1, 0x01, 0xbf,
  0x1c, 0xc1, 0x0c, 0xbe, 0x0d, 0xd4, 0x60, 0x3c, 0xac, 0xe1, 0x7d, 0xbd,
  0x5f, 0xb1, 0x2e, 0xbe, 0xe3, 0x04, 0x2a, 0x3e, 0xbd, 0x80, 0x3c, 0x3d,
  0x12, 0x44, 0xf1, 0xbc, 0x2b, 0x1c, 0x32, 0xbd, 0x67, 0x55, 0x58, 0x3d,
  0xb2, 0x8f, 0x6e, 0x3d, 0x51, 0x1f, 0x61, 0x3d, 0xc1, 0xfc, 0x02, 0x3e,
  0x16, 0xb4, 0x6b, 0x3d, 0xd4, 0xe1, 0x1d, 0xbf, 0xce, 0xe5, 0xa4, 0x3b,
  0x99, 0x44, 0xf8, 0xbe, 0x41, 0x19, 0xb8, 0xbd, 0xeb, 0xc4, 0xd5, 0x3d,
  0x05, 0x2c, 0xb7, 0xbd, 0x97, 0x4c, 0xc3, 0x3d, 0xe6, 0xe6, 0x4e, 0xbd,
  0x43, 0x4b, 0x62, 0xbc, 0x09, 0x6f, 0x20, 0x3d, 0x4e, 0xea, 0xbd, 0x3c,
  0x32, 0xd9, 0xfc, 0x3b, 0x0e, 0xe4, 0x27, 0x3e, 0xbf, 0xc6, 0x98, 0x3e,
  0xad, 0x12, 0x8e, 0xbc, 0xe3, 0x57, 0xe3, 0x3d, 0xd7, 0x64, 0x1a, 0xbf,
  0xba, 0xc0, 0xc9, 0x3d, 0x46, 0x5e, 0x2e, 0xbe, 0xe0, 0x73, 0x36, 0x3c,
  0xd3, 0x06, 0x8f, 0x3d, 0xa6, 0x73, 0xed, 0xbd, 0x30, 0x13, 0x1a, 0x3e,
  0x20, 0xfa, 0x59, 0x3d, 0x76, 0xfe, 0x27, 0x3e, 0x18, 0xc5, 0xad, 0x3d,
  0x41, 0xb7, 0xd9, 0x3d, 0x0d, 0xd6, 0x16, 0x3e, 0x69, 0xdd, 0x10, 0x3e,
  0x60, 0xbe, 0x94, 0xbc, 0xab, 0xbb, 0xce, 0x3b, 0x08, 0x4c, 0xd9, 0x3d,
  0xaf, 0x2d, 0x13, 0xbf, 0xcd, 0x26, 0x9d, 0xbc, 0x2e, 0xf4, 0x10, 0xbd,
  0x8e, 0x69, 0x37, 0xbe, 0xcb, 0x47, 0x7e, 0x3d, 0x98, 0x78, 0x11, 0xbd,
  0xc3, 0x72, 0xbf, 0x3d, 0xf7, 0x23, 0x6a, 0x3e, 0x3e, 0xe1, 0x8d, 0x3e,
  0x9b, 0x3c, 0x06, 0x3e, 0xf3, 0xd1, 0x49, 0x3d, 0x6a, 0xbf, 0x00, 0x3d,
  0x99, 0xd7, 0x0c, 0x3e, 0x95, 0xff, 0xa9, 0xbd, 0x4e, 0x56, 0xc9, 0x3c,
  0x63, 0x93, 0x4e, 0x3d, 0xcb, 0x2c, 0x23, 0xbe, 0xf7, 0x6b, 0x77, 0xbc,
  0xd4, 0xa4, 0x4f, 0xbd, 0x01, 0xa7, 0xe3, 0x3d, 0xde, 0x89, 0x98, 0xbe,
  0x24, 0x16, 0x45, 0xbe, 0x37, 0x22, 0xab, 0x3c, 0xb4, 0x48, 0x31, 0x3e,
  0x28, 0xc6, 0xa7, 0xbb, 0x68, 0x70, 0x3e, 0xbe, 0xab, 0x0a, 0x1a, 0x3b,
  0x60, 0xaa, 0x37, 0x3d, 0xd0, 0x8f, 0x9f, 0x3c, 0xa0, 0xcf, 0xc1, 0x3d,
  0xa4, 0xa1, 0xb5, 0x3d, 0x2e, 0x9a, 0x75, 0xbe, 0xe8, 0x01, 0xa2, 0x3d,
  0x9b, 0x60, 0xa9, 0x3e, 0x69, 0x5e, 0x80, 0xbd, 0xd0, 0xdd, 0xaa, 0xbd,
  0x1e, 0x01, 0xa4, 0xbc, 0x00, 0x4f, 0x28, 0xbe, 0xe1, 0x51, 0x04, 0xbf,
  0x1f, 0x18, 0xa3, 0x3d, 0xe0, 0x94, 0x8f, 0x3d, 0xcf, 0x90, 0xa8, 0x3b,
  0x03, 0x63, 0xcd, 0xbd, 0x70, 0x3b, 0x4e, 0x3e, 0xc1, 0x07, 0x02, 0xbe,
  0xa7, 0x6f, 0xb5, 0xbd, 0x18, 0xd1, 0x97, 0x3d, 0x05, 0xac, 0xb6, 0xbe,
  0xaf, 0x4d, 0x99, 0x3d, 0x4a, 0x94, 0x8e, 0x3e, 0x4f, 0x50, 0xa2, 0x3c,
  0x1e, 0x42, 0x08, 0xbe, 0x4a, 0x6c, 0xb3, 0xbc, 0x73, 0x7b, 0x9d, 0x3c,
  0xcb, 0x41, 0x8c, 0xbe, 0x01, 0xb2, 0x76, 0xbe, 0x91, 0xfc, 0x9f, 0x3d,
  0x32, 0x13, 0xd3, 0xbc, 0xea, 0xa0, 0xb1, 0xbe, 0x51, 0x5c, 0xdf, 0x3c,
  0x1c, 0x7d, 0x42, 0xbe, 0x3f, 0x19, 0xe8, 0xbd, 0x5d, 0xa3, 0x8f, 0xbe,
  0xd9, 0x21, 0x05, 0xbe, 0x64, 0xfe, 0x66, 0x3e, 0x62, 0xc2, 0xd5, 0x3e,
  0x45, 0xe6, 0x69, 0x3d, 0xb8, 0x3d, 0x58, 0x3d, 0x99, 0x87, 0xf9, 0x3b,
  0xca, 0x3a, 0xd5, 0x3c, 0xae, 0x76, 0x8e, 0xbe, 0x6e, 0xba, 0xa0, 0x3d,
  0x6a, 0xb0, 0xb4, 0xbd, 0x99, 0x05, 0x8f, 0xbe, 0x07, 0xdb, 0x90, 0xbe,
  0x12, 0x28, 0xf8, 0xbc, 0x79, 0x66, 0x40, 0xbe, 0x45, 0xa8, 0xbd, 0xbd,
  0x95, 0x71, 0x85, 0x3c, 0x8c, 0x57, 0xa5, 0xbe, 0xe9, 0x26, 0x44, 0x3e,
  0x0a, 0x6c, 0x90, 0x3e, 0xaa, 0x87, 0x16, 0x3c, 0x30, 0xbd, 0x19, 0x3d,
  0x6d, 0x10, 0x1d, 0x3d, 0xdc, 0x39, 0x42, 0xbd, 0xb9, 0xf2, 0x83, 0xbe,
  0xbf, 0xa5, 0x94, 0x3d, 0xc0, 0x5a, 0x3d, 0xbd, 0xb0, 0xd8, 0xc0, 0xbd,
  0x99, 0x61, 0x45, 0x3d, 0x50, 0x9b, 0x96, 0x3d, 0x8f, 0x29, 0x55, 0x3c,
  0x4c, 0x2b, 0x2c, 0xbe, 0x35, 0x52, 0xba, 0xbd, 0xc2, 0xb4, 0x94, 0xbe,
  0x0d, 0x60, 0x6d, 0x3e, 0x52, 0x3f, 0xfb, 0x3e, 0xfb, 0x51, 0xc1, 0x3c,
  0xfe, 0xf5, 0x0e, 0xbc, 0x81, 0x6d, 0xb5, 0x3c, 0xe3, 0x2d, 0xee, 0xba,
  0x35, 0x43, 0xe6, 0xbe, 0x2d, 0xa1, 0xee, 0x3c, 0x9d, 0xf8, 0xc8, 0xbc,
  0x0d, 0x9f, 0xf3, 0xbd, 0x40, 0x86, 0x2f, 0xbe, 0xb9, 0x3a, 0x60, 0x3e,
  0xd0, 0x58, 0x10, 0xbe, 0xe1, 0x18, 0x2f, 0x3d, 0x7a, 0x6e, 0x76, 0x3d,
  0xd7, 0xf9, 0x8b, 0xbe, 0x11, 0x8e, 0x1a, 0x3e, 0x45, 0x9c, 0x62, 0x3e,
  0xa5, 0x43, 0x6c, 0x3c, 0xaf, 0xec, 0x0a, 0xbd, 0x89, 0x84, 0x5a, 0xbd,
  0xd0, 0x50, 0x0e, 0xbe, 0x2a, 0xa2, 0xc4, 0xbe, 0xf5, 0x6d, 0x2d, 0xbc,
  0x6f, 0x02, 0x22, 0xbe, 0xed, 0x7b, 0x94, 0xbd, 0x2d, 0xa9, 0x7d, 0xbe,
  0x6e, 0x60, 0x18, 0x3e, 0x5b, 0x4a, 0xb0, 0xbd, 0x4d, 0x7d, 0xc5, 0xbd,
  0x85, 0xf4, 0xa6, 0x3c, 0xb6, 0xe3, 0x77, 0xbd, 0xd1, 0x88, 0x24, 0xbd,
  0x3f, 0xc7, 0x71, 0x3e, 0x30, 0x19, 0x36, 0x3e, 0x7f, 0xd7, 0xc0, 0xbe,
  0xa5, 0xb3, 0xfe, 0xbd, 0x91, 0x69, 0xc1, 0xbe, 0x55, 0x37, 0x35, 0x3d,
  0x73, 0x96, 0xd9, 0xbd, 0xf7, 0xaa, 0x44, 0xbf, 0x53, 0xe1, 0x8b, 0x3e,
  0xea, 0x8d, 0x02, 0xbd, 0x81, 0xee, 0x0a, 0xbe, 0x03, 0x24, 0x1a, 0xbf,
  0x7f, 0xcb, 0x46, 0xbe, 0x5b, 0xa8, 0x46, 0xbe, 0xb1, 0xd8, 0x0c, 0x3e,
  0xa6, 0x62, 0xfd, 0x3c, 0x62, 0xa2, 0xf0, 0xbd, 0x9f, 0x9c, 0x5e, 0x3e,
  0x88, 0xa8, 0x15, 0x3c, 0x0c, 0xa4, 0x35, 0xbe, 0xe8, 0x8d, 0x66, 0xbe,
  0xc3, 0x94, 0xba, 0x3e, 0xf9, 0x73, 0xa8, 0xbc, 0xf6, 0x05, 0x8d, 0x3c,
  0x66, 0xb4, 0xc5, 0xbc, 0xcb, 0x6f, 0xfa, 0x3d, 0xca, 0x66, 0xae, 0xbd,
  0xdb, 0x89, 0x91, 0x3b, 0x36, 0x16, 0xaa, 0x3d, 0xd9, 0xfd, 0x01, 0x3d,
  0xd5, 0x02, 0x40, 0x3e, 0x91, 0xd2, 0x64, 0x3c, 0xbc, 0x26, 0x3c, 0xbe,
  0x22, 0x45, 0xe9, 0xbd, 0xd9, 0x17, 0x34, 0x3c, 0x9b, 0x6b, 0x0b, 0x3d,
  0x62, 0x5f, 0x4d, 0xbe, 0xff, 0x78, 0x18, 0x3e, 0xb6, 0x8f, 0xd9, 0xbd,
  0x00, 0x44, 0x14, 0x3e, 0xd6, 0xb1, 0x76, 0xbc, 0x26, 0xa5, 0x49, 0x3e,
  0xf1, 0x46, 0xbe, 0xbc, 0x8b, 0x2f, 0xa9, 0x3d, 0xd2, 0x60, 0x53, 0xbd,
  0x55, 0x52, 0xa8, 0xbd, 0x13, 0xce, 0xb9, 0x3d, 0x4c, 0x19, 0xc6, 0x3d,
  0x1d, 0x43, 0x14, 0x3d, 0xa9, 0x91, 0x22, 0xbd, 0x82, 0x73, 0x2d, 0xbd,
  0xf8, 0xfa, 0x9d, 0x3d, 0xe3, 0xff, 0x0a, 0xbe, 0x2e, 0xe0, 0xc3, 0x3d,
  0x90, 0x00, 0x2e, 0x3d, 0xbd, 0x7a, 0xb5, 0xbc, 0x02, 0xac, 0x37, 0x3d,
  0x92, 0x94, 0x1c, 0x3e, 0x0d, 0xe4, 0x44, 0x3d, 0xa1, 0x51, 0x02, 0x3d,
  0xad, 0xde, 0x5e, 0x3d, 0x29, 0x47, 0xc0, 0xbd, 0xbe, 0xc8, 0xab, 0x3d,
  0xeb, 0x51, 0x1a, 0xbe, 0xd5, 0x8a, 0xc3, 0xbc, 0xe7, 0xf7, 0xa1, 0xbe,
  0xb4, 0xa5, 0x12, 0x3d, 0x1e, 0xce, 0x13, 0xbd, 0x16, 0x63, 0xc7, 0xbd,
  0xf3, 0x06, 0x18, 0xbd, 0x71, 0x7d, 0xe7, 0x3d, 0xf4, 0x76, 0x0b, 0x3e,
  0x89, 0x76, 0x5e, 0xbe, 0x1a, 0xc4, 0x46, 0x3e, 0x27, 0x6c, 0xc8, 0xbd,
  0xb8, 0xbf, 0x1b, 0xbc, 0x4e, 0x26, 0x04, 0x3e, 0xfd, 0xe1, 0x8d, 0x3d,
  0xf7, 0xcc, 0xbf, 0xbd, 0xcb, 0xe6, 0x2f, 0xbd, 0xe1, 0x7d, 0xf2, 0xbd,
  0x0a, 0x5f, 0x98, 0xbe, 0xa4, 0x8c, 0x5f, 0xbd, 0x71, 0x5b, 0xd2, 0x3c,
  0x3e, 0x50, 0x02, 0xbe, 0x6a, 0x71, 0x82, 0xbe, 0xfa, 0x04, 0xd4, 0xbc,
  0x08, 0xd9, 0x47, 0xbd, 0xb7, 0xbf, 0x94, 0x3c, 0xbd, 0x2d, 0x48, 0xbe,
  0x47, 0xd0, 0x73, 0xbd, 0x8a, 0xc2, 0xd8, 0xbd, 0x7d, 0xb2, 0x23, 0xbd,
  0xe3, 0x24, 0x07, 0xbe, 0x29, 0xb6, 0xb5, 0xbe, 0x0f, 0x2d, 0x61, 0xbe,
  0xbd, 0x0f, 0x2b, 0x3d, 0xf6, 0xf6, 0x42, 0x3d, 0xec, 0xb0, 0x24, 0x3d,
  0xeb, 0x9e, 0xd0, 0x3d, 0x42, 0x9f, 0x49, 0x3c, 0xdb, 0x19, 0xaa, 0xbe,
  0x46, 0xc9, 0x9d, 0xbd, 0x2c, 0x71, 0x6f, 0x3d, 0xae, 0x3f, 0x02, 0x3f,
  0xce, 0x19, 0xaf, 0xbb, 0xc2, 0xe9, 0xf2, 0x3d, 0xf6, 0xdd, 0x59, 0x3e,
  0x56, 0xa0, 0x2c, 0xbe, 0x39, 0x35, 0x17, 0x3d, 0xa7, 0xf2, 0x0e, 0xbe,
  0x0b, 0x00, 0x19, 0xbe, 0x19, 0x3d, 0x34, 0xbd, 0x4f, 0xf5, 0x29, 0xbe,
  0x96, 0x7b, 0x02, 0x3e, 0xc3, 0x6c, 0xb2, 0xbd, 0xf2, 0xa4, 0xf7, 0xbd,
  0x8e, 0x3f, 0xc9, 0xbe, 0x7f, 0xc8, 0x17, 0x3e, 0xff, 0x65, 0x0b, 0xbd,
  0x86, 0xad, 0x93, 0xbd, 0x44, 0xa8, 0xb9, 0x3d, 0x13, 0xfc, 0x8b, 0x3c,
  0x2b, 0x0a, 0xac, 0x3d, 0x69, 0xf6, 0x16, 0x3b, 0xf9, 0x45, 0x38, 0x3e,
  0xa4, 0x5c, 0x0b, 0xbf, 0x34, 0x20, 0xfb, 0x3c, 0xc0, 0xd4, 0xb9, 0x3e,
  0xa7, 0x80, 0x94, 0xbd, 0xa9, 0x45, 0x11, 0x3c, 0x7b, 0xba, 0x95, 0x3d,
  0x3c, 0x5a, 0x9e, 0x3d, 0xd1, 0x07, 0x0d, 0xbf, 0x65, 0x95, 0xa2, 0xbd,
  0x57, 0x58, 0x9b, 0x3d, 0xf8, 0x17, 0xab, 0xbe, 0xa2, 0x85, 0x55, 0xbe,
  0x1b, 0x6d, 0x60, 0x3e, 0xae, 0x22, 0x01, 0xbc, 0xfe, 0x9f, 0x56, 0xbe,
  0x22, 0xdc, 0x8f, 0x3e, 0x15, 0x9a, 0xaf, 0xbe, 0x32, 0xff, 0x50, 0xbd,
  0x9e, 0xf4, 0x9f, 0x3e, 0x5e, 0xb0, 0xc4, 0x3c, 0xbb, 0x8b, 0x86, 0x3d,
  0x5a, 0x38, 0x3c, 0xbe, 0xed, 0xba, 0x29, 0xbb, 0x30, 0x09, 0xd2, 0xbe,
  0x88, 0xc7, 0x16, 0x3d, 0x3c, 0x9f, 0xce, 0x3d, 0x1c, 0xe2, 0x72, 0xbe,
  0x64, 0xe2, 0xe8, 0xbd, 0x6b, 0x89, 0x07, 0x3e, 0x72, 0xc3, 0x09, 0xbd,
  0xc8, 0xea, 0x81, 0xbe, 0x1b, 0x73, 0x09, 0x3d, 0xad, 0x38, 0x09, 0xbe,
  0x3a, 0xaa, 0xb1, 0x3d, 0x3e, 0x3e, 0x8e, 0x3e, 0x40, 0x62, 0x54, 0xbc,
  0x7d, 0x45, 0x89, 0x3d, 0x4d, 0x8d, 0xf2, 0xbd, 0x90, 0xe2, 0x8d, 0xbd,
  0x26, 0x65, 0x84, 0xbe, 0xaf, 0xd0, 0x82, 0x3d, 0x40, 0xc7, 0xfe, 0xbd,
  0x90, 0xb2, 0x30, 0xbe, 0x73, 0xb1, 0xc9, 0xbd, 0x88, 0x7a, 0x3f, 0x3e,
  0xe2, 0x66, 0x19, 0x3b, 0x85, 0x39, 0x3f, 0xbe, 0xba, 0xf9, 0x1c, 0x3e,
  0x13, 0xd9, 0xd0, 0xbe, 0x64, 0x33, 0xd2, 0x3d, 0x3a, 0x26, 0x5b, 0x3e,
  0xe8, 0x09, 0x92, 0xbd, 0xc7, 0x25, 0x1d, 0x3d, 0xc2, 0xb7, 0x78, 0xbd,
  0x2b, 0xc0, 0x82, 0xbd, 0x04, 0x52, 0x76, 0xbe, 0x03, 0x0e, 0x86, 0x3d,
  0xea, 0x1d, 0xca, 0xbc, 0x17, 0x6a, 0x84, 0xbe, 0xd0, 0x37, 0xc5, 0x3d,
  0x1a, 0xcb, 0xc3, 0x3d, 0x08, 0xca, 0xbd, 0x3d, 0x8c, 0x10, 0xaa, 0xbd,
  0x7b, 0x49, 0x11, 0xbc, 0x6d, 0x76, 0xea, 0xbe, 0x15, 0xdb, 0x06, 0x3e,
  0xbb, 0xaa, 0xb0, 0x3e, 0x86, 0x1c, 0x85, 0xbd, 0x5e, 0x76, 0x0f, 0x3d,
  0x0a, 0x2e, 0x74, 0xbd, 0x09, 0xd2, 0x90, 0x3c, 0xbe, 0x4f, 0x98, 0xbe,
  0xb6, 0x5c, 0xed, 0x3d, 0x7c, 0x82, 0x38, 0x3c, 0x93, 0xea, 0x75, 0xbe,
  0x01, 0xe8, 0x7d, 0xbe, 0xf4, 0xdc, 0xd6, 0x3d, 0x7e, 0x24, 0xd6, 0x3d,
  0x89, 0xb0, 0xba, 0x3d, 0x46, 0xe8, 0x09, 0x3e, 0xb0, 0x14, 0xb6, 0xbe,
  0xae, 0x99, 0x9d, 0x3c, 0xc2, 0x1c, 0x60, 0x3e, 0x31, 0x8b, 0x56, 0xbd,
  0x32, 0xd2, 0x35, 0x3d, 0xf1, 0xa8, 0x38, 0xbe, 0x40, 0x0d, 0xf8, 0xbd,
  0xb3, 0xc7, 0x86, 0xbe, 0x94, 0xc6, 0x6e, 0x3b, 0xb0, 0xb0, 0x6a, 0x3e,
  0xd1, 0x94, 0x04, 0xbf, 0x1f, 0x46, 0x4c, 0xbd, 0x48, 0x80, 0xa2, 0x3d,
  0xf3, 0xae, 0xa6, 0x3d, 0x85, 0xde, 0x93, 0xbd, 0x97, 0x46, 0x54, 0x3d,
  0x0b, 0x28, 0x6a, 0xbe, 0x18, 0x74, 0x09, 0x3d, 0xf1, 0x80, 0x09, 0x3e,
  0x2d, 0x2e, 0x49, 0xbc, 0x56, 0xd9, 0xc9, 0xbb, 0x29, 0xe7, 0x83, 0x3c,
  0xa4, 0x4e, 0x6b, 0xbc, 0x88, 0x76, 0xa6, 0xbe, 0xea, 0x96, 0x70, 0x3c,
  0x0e, 0x6c, 0xe7, 0x39, 0x34, 0x63, 0x28, 0xbe, 0x1d, 0x41, 0x59, 0xbd,
  0x68, 0x18, 0xb7, 0xbd, 0x82, 0x2d, 0x9a, 0x3c, 0x27, 0xb1, 0x3a, 0x3c,
  0xf4, 0x7d, 0x40, 0x3d, 0x32, 0x16, 0x69, 0xbe, 0xe6, 0x89, 0xf4, 0xbe,
  0xde, 0x98, 0xbe, 0x3c, 0x13, 0xfa, 0xf8, 0x3b, 0xca, 0x5b, 0x26, 0x3d,
  0x7d, 0xc2, 0xa7, 0x3c, 0xea, 0x20, 0x1a, 0xbe, 0xee, 0xdb, 0x1e, 0xbf,
  0x4a, 0x8c, 0xaa, 0xbe, 0xac, 0x70, 0x41, 0xbc, 0xf4, 0xdf, 0xde, 0x3e,
  0x11, 0x04, 0xb4, 0x3d, 0x4a, 0x72, 0xeb, 0xbd, 0x94, 0x48, 0x30, 0x3d,
  0x36, 0x01, 0x45, 0xbd, 0x91, 0xc2, 0x85, 0xbc, 0x51, 0x8e, 0x9e, 0x3c,
  0x55, 0x94, 0x0a, 0xbf, 0xb7, 0xed, 0x19, 0xbe, 0x20, 0x86, 0x91, 0x3d,
  0x08, 0xff, 0xa0, 0x3d, 0xb7, 0x3b, 0xc1, 0x3d, 0xea, 0xab, 0xec, 0xbd,
  0xf7, 0xba, 0x1e, 0xbf, 0xac, 0xe7, 0x36, 0xbe, 0xb1, 0x32, 0x55, 0x3d,
  0x3f, 0xf1, 0x99, 0x3e, 0x2b, 0xfe, 0x9d, 0xbc, 0x7a, 0xc7, 0xa6, 0xbd,
  0x86, 0xae, 0xc1, 0xbd, 0xf3, 0x09, 0x21, 0x3e, 0x10, 0x8d, 0x1b, 0x3c,
  0xda, 0xb2, 0xa5, 0xbc, 0xce, 0xf4, 0x8e, 0x3c, 0xb5, 0x9a, 0xe2, 0x3c,
  0xf1, 0x43, 0x63, 0x3e, 0x5d, 0xef, 0x8b, 0xbd, 0x2b, 0xa0, 0xe0, 0xbb,
  0x9a, 0x47, 0x0b, 0xbe, 0x70, 0x6a, 0x76, 0xbd, 0x55, 0x40, 0xae, 0xbe,
  0x8c, 0xc3, 0x0c, 0x3e, 0x18, 0x1a, 0xc5, 0x3e, 0x51, 0xc6, 0x81, 0x3d,
  0xea, 0x18, 0x1d, 0xbe, 0xe1, 0xfd, 0x98, 0xbc, 0x69, 0xcb, 0x06, 0xbe,
  0x27, 0xf3, 0x03, 0xbd, 0x64, 0x17, 0x24, 0x3e, 0x15, 0xbd, 0x0d, 0x3e,
  0xbf, 0x2b, 0x79, 0x3d, 0x24, 0x4c, 0x8f, 0x3e, 0x4a, 0x4b, 0x16, 0xbd,
  0x33, 0x25, 0x93, 0xbc, 0xb6, 0xf8, 0x25, 0xbe, 0x75, 0xd3, 0xef, 0x3d,
  0xdf, 0x22, 0xc5, 0xbe, 0x47, 0x3d, 0xf4, 0x3d, 0x9f, 0x60, 0x06, 0x3e,
  0x62, 0xf0, 0x4c, 0xbe, 0x77, 0xab, 0x50, 0xbe, 0x58, 0x30, 0xb5, 0x3d,
  0x87, 0xb5, 0x0e, 0x3e, 0xfe, 0xb3, 0x03, 0x3e, 0xad, 0xec, 0x65, 0x3d,
  0xb1, 0x19, 0x05, 0x3e, 0x1f, 0x8a, 0x65, 0xbe, 0xb7, 0xcc, 0xb1, 0x3c,
  0xbd, 0x16, 0x15, 0xbe, 0x1f, 0xa0, 0xf7, 0xbd, 0x3e, 0x48, 0x38, 0xbe,
  0x45, 0x92, 0xdd, 0x3d, 0x0a, 0xf9, 0xa7, 0xbe, 0xad, 0x91, 0xb6, 0xbd,
  0xac, 0x73, 0x3f, 0x3e, 0x4f, 0x08, 0x25, 0x3e, 0xba, 0x5e, 0xfc, 0xbd,
  0x25, 0x52, 0x07, 0xbe, 0x5d, 0x9a, 0x35, 0x3e, 0x10, 0xf7, 0x58, 0x3d,
  0x62, 0xb2, 0x78, 0x3d, 0x8b, 0xb5, 0xed, 0x3d, 0xd9, 0x8e, 0x41, 0xbe,
  0xdf, 0x24, 0xd9, 0xba, 0xa0, 0xac, 0x09, 0xbe, 0x6c, 0x2c, 0x04, 0xbf,
  0xa4, 0xad, 0xbb, 0xbd, 0xea, 0x94, 0xa8, 0x3d, 0xbf, 0xd6, 0x77, 0xbc,
  0xac, 0x1b, 0x60, 0xbb, 0x54, 0x88, 0xcf, 0xbc, 0xa9, 0x6f, 0xfe, 0x3d,
  0x2e, 0x76, 0x02, 0xbf, 0x51, 0x5f, 0x5c, 0xbe, 0x5c, 0xfa, 0x55, 0x3e,
  0x8b, 0x86, 0xa9, 0xbe, 0xc0, 0xb7, 0x0f, 0x3d, 0xd5, 0x4b, 0x10, 0x3e,
  0x95, 0x29, 0xcf, 0xbe, 0x88, 0x78, 0x65, 0xbe, 0x31, 0x85, 0x0e, 0xbd,
  0x26, 0x17, 0xa4, 0x3c, 0x3f, 0x2e, 0x25, 0xbd, 0xc2, 0xbf, 0x68, 0xbe,
  0x03, 0xbd, 0xcf, 0xbe, 0x77, 0x95, 0x2a, 0x3e, 0x28, 0x38, 0x53, 0xbe,
  0xf1, 0x27, 0x4b, 0xbe, 0x3f, 0x0d, 0xa4, 0x3d, 0xd8, 0xca, 0xd9, 0xbc,
  0x13, 0xc2, 0xac, 0xbc, 0x20, 0x2d, 0xc0, 0x3e, 0x95, 0xc9, 0x80, 0x3a,
  0x89, 0x09, 0x9d, 0xbe, 0x16, 0xcd, 0x91, 0xbe, 0xdd, 0x00, 0x4e, 0xbb,
  0xb8, 0xf2, 0x4f, 0xbe, 0x4a, 0xf1, 0x13, 0xbd, 0x19, 0x8c, 0xee, 0xbd,
  0xb1, 0xfb, 0xc6, 0x3d, 0x53, 0xb9, 0x79, 0x3e, 0xc8, 0x7d, 0x05, 0xbe,
  0x73, 0x60, 0xb4, 0x3e, 0xc7, 0xa1, 0x1e, 0x3e, 0x27, 0x53, 0xb2, 0xbc,
  0x58, 0x44, 0xcd, 0xbd, 0xe4, 0xbc, 0x57, 0xbd, 0x67, 0x1b, 0x65, 0xbe,
  0xf2, 0x9d, 0xe6, 0x3c, 0xe4, 0x5a, 0xee, 0xbe, 0x84, 0xc5, 0x14, 0x3e,
  0xc1, 0x68, 0x3c, 0x3d, 0xaa, 0x91, 0x81, 0x3d, 0x5b, 0x33, 0xb3, 0xbc,
  0x79, 0xf8, 0x9f, 0xbd, 0xe9, 0xc9, 0x8f, 0xbe, 0xa6, 0x2c, 0x2e, 0x3e,
  0x77, 0xb4, 0x47, 0xbe, 0xc7, 0x8c, 0x84, 0x3e, 0x44, 0x88, 0x80, 0xbd,
  0x24, 0xb6, 0x23, 0x3d, 0x15, 0xf6, 0x59, 0xbe, 0xd6, 0x1a, 0x15, 0x3e,
  0x11, 0x2f, 0x81, 0xbe, 0xae, 0x8d, 0x65, 0x3d, 0x2e, 0xea, 0xff, 0x3c,
  0xd2, 0x35, 0x16, 0x3d, 0xfd, 0x8a, 0x45, 0x3b, 0x91, 0xb0, 0x6c, 0xbe,
  0x8a, 0x7b, 0x5b, 0x3d, 0xb4, 0xec, 0xe2, 0xbd, 0xa6, 0xe6, 0x8a, 0xbe,
  0x95, 0x42, 0xbc, 0xbe, 0xa6, 0xd3, 0xda, 0xbc, 0x79, 0xc7, 0x9f, 0x3d,
  0x15, 0x98, 0xfc, 0xbd, 0x75, 0xf1, 0x31, 0xbd, 0xc5, 0x68, 0x71, 0x3c,
  0x14, 0x06, 0x20, 0x3e, 0x6b, 0xa4, 0x58, 0xbe, 0xea, 0xfa, 0x83, 0x3c,
  0x13, 0x80, 0xe6, 0x3d, 0xf7, 0x07, 0xc6, 0xbc, 0x84, 0x4e, 0x9d, 0x3d,
  0xdb, 0x5f, 0x23, 0xbf, 0x3f, 0x97, 0x9c, 0x3d, 0x59, 0xd4, 0xee, 0xbd,
  0xa9, 0x89, 0x14, 0xbd, 0x2b, 0x2d, 0xe7, 0xbe, 0xf1, 0xee, 0xc4, 0xbc,
  0xde, 0xb0, 0x2a, 0x3c, 0x2b, 0xfa, 0x51, 0x3e, 0x0d, 0x0e, 0x87, 0xbd,
  0x11, 0xe9, 0xe2, 0x3c, 0xfe, 0x10, 0xe4, 0x3d, 0xd3, 0x00, 0x36, 0x3d,
  0xe5, 0x1d, 0x84, 0x3d, 0xf2, 0xfa, 0x3d, 0x3d, 0x6f, 0xfc, 0xbb, 0xbb,
  0xd4, 0x1f, 0x43, 0xbd, 0x46, 0x48, 0x02, 0xbe, 0xb0, 0xe6, 0xec, 0xbb,
  0x4d, 0x97, 0x08, 0xbe, 0x78, 0x5a, 0x49, 0x3e, 0x87, 0xce, 0xb6, 0x3d,
  0x40, 0x1a, 0xca, 0xbd, 0x8a, 0xf6, 0x56, 0x3e, 0x2e, 0x28, 0x97, 0x3e,
  0x59, 0x56, 0xf1, 0x3d, 0x1b, 0xdd, 0x40, 0xbe, 0x06, 0x81, 0xf5, 0xbc,
  0xc1, 0x6e, 0x3c, 0xbc, 0x63, 0x6b, 0xd5, 0x3d, 0x83, 0xfc, 0x9f, 0xbd,
  0xb8, 0xe3, 0xc1, 0xbb, 0x10, 0x97, 0x05, 0xbd, 0xf8, 0x25, 0x77, 0xbd,
  0xe2, 0xa6, 0x32, 0xbe, 0x8f, 0x5d, 0x1f, 0xbd, 0xf3, 0xdd, 0x9a, 0x3e,
  0x4c, 0x8f, 0x84, 0x3e, 0xd8, 0xa1, 0xbf, 0x3e, 0xfc, 0x8a, 0x79, 0x3e,
  0x9c, 0xd4, 0x39, 0x3e, 0x17, 0xa0, 0x61, 0x3d, 0x1d, 0xae, 0x56, 0xbd,
  0xaf, 0x49, 0x4e, 0xbe, 0x55, 0x35, 0x84, 0x3c, 0xe6, 0xfa, 0x47, 0x3b,
  0x48, 0xf9, 0xdc, 0xbd, 0x0a, 0xad, 0x66, 0xbd, 0x77, 0x80, 0x6d, 0xbc,
  0x18, 0xaf, 0x79, 0x3c, 0x6f, 0x00, 0x3d, 0x3d, 0x2c, 0xa6, 0x09, 0xbe,
  0x79, 0x22, 0x0b, 0xbe, 0x79, 0x93, 0xff, 0xbd, 0x1e, 0xe1, 0x59, 0x3e,
  0x23, 0x06, 0xcf, 0x3d, 0x24, 0xed, 0x05, 0x3e, 0x01, 0xbb, 0x76, 0xbe,
  0x52, 0xcf, 0x85, 0x3e, 0x77, 0x8b, 0x32, 0x3c, 0x39, 0xe1, 0xb4, 0x3d,
  0x0e, 0xb4, 0x9c, 0x3d, 0xc6, 0x52, 0xc0, 0x3d, 0xbd, 0x7d, 0xff, 0xbe,
  0xcd, 0x90, 0x1a, 0x3e, 0x6a, 0x52, 0x6b, 0xbc, 0xc5, 0x1f, 0x2e, 0x3c,
  0xbd, 0x6d, 0xbb, 0xbd, 0xc0, 0xc8, 0x55, 0x3e, 0xd0, 0x9d, 0xd2, 0xbe,
  0x1a, 0x8c, 0x30, 0xbe, 0x4b, 0x81, 0x7e, 0xbe, 0xfe, 0x3d, 0xb8, 0xbd,
  0x01, 0x6e, 0xac, 0xbe, 0x60, 0x8a, 0xdc, 0xbd, 0xa8, 0x16, 0xcb, 0x3e,
  0xfe, 0xda, 0xdf, 0xbb, 0x7d, 0xed, 0x12, 0x3e, 0x6f, 0x62, 0xf1, 0x3d,
  0x00, 0x3a, 0x99, 0xbe, 0xe5, 0x4f, 0x54, 0x3e, 0x13, 0xf6, 0x08, 0x3d,
  0xd0, 0xff, 0x56, 0xbd, 0x83, 0xb7, 0xd7, 0xbd, 0xb7, 0x56, 0x41, 0x3e,
  0xd9, 0x11, 0x6f, 0xbe, 0x85, 0xf1, 0x95, 0x3c, 0xae, 0x5a, 0x47, 0xbd,
  0x4b, 0x33, 0xda, 0x3d, 0x9c, 0xeb, 0xee, 0xbe, 0xfe, 0x0d, 0x60, 0xbe,
  0x3d, 0xe2, 0xe6, 0x3d, 0xc0, 0x19, 0x1e, 0xbd, 0x36, 0x92, 0x97, 0xbd,
  0x8d, 0x55, 0xd1, 0xbd, 0xd7, 0x1e, 0x83, 0xbe, 0x4f, 0x4e, 0xcd, 0xbd,
  0x6c, 0x1d, 0x16, 0x3d, 0x06, 0x8c, 0x36, 0x3c, 0x6f, 0xab, 0x5c, 0xbd,
  0x64, 0xe7, 0x0f, 0x3e, 0xb6, 0xa2, 0xa4, 0xbd, 0x94, 0x57, 0xfe, 0xbd,
  0xc4, 0x82, 0x32, 0xbe, 0x89, 0x30, 0xcf, 0x3d, 0xdb, 0x15, 0xd6, 0xbe,
  0xa3, 0x56, 0xcd, 0xbd, 0x96, 0x66, 0xac, 0x3e, 0xf5, 0x35, 0x73, 0xbe,
  0x9b, 0x14, 0xab, 0xbe, 0x69, 0x64, 0x0f, 0xbe, 0x79, 0x1d, 0x0d, 0xbe,
  0x3c, 0x32, 0x1f, 0xbe, 0xf7, 0xb7, 0xc6, 0x3c, 0xf6, 0x52, 0xb5, 0x3c,
  0x28, 0x29, 0x9c, 0xbd, 0xec, 0xe4, 0xc6, 0xbd, 0x66, 0xc9, 0xfe, 0xbd,
  0x4c, 0x33, 0x04, 0x3d, 0x8d, 0x56, 0x1c, 0xbe, 0x20, 0xc9, 0x03, 0x3e,
  0x2d, 0x70, 0x83, 0xbe, 0x14, 0xfc, 0xb9, 0x3d, 0x9e, 0xb4, 0xfc, 0x3d,
  0x7d, 0x23, 0x0e, 0xbe, 0xdf, 0x51, 0xb3, 0xbe, 0xe9, 0x27, 0xaa, 0xbe,
  0x2c, 0x1e, 0xf6, 0xbe, 0x40, 0x62, 0xbd, 0xbd, 0x6c, 0x18, 0xe8, 0xbc,
  0xf0, 0x7f, 0x61, 0xbd, 0x2e, 0xf3, 0x03, 0xbe, 0xa7, 0x0c, 0xd1, 0xbe,
  0x73, 0xdf, 0x67, 0xbe, 0xc6, 0x9f, 0x9d, 0x3d, 0xd1, 0x34, 0x1f, 0x3e,
  0x1b, 0x8c, 0x74, 0xbe, 0x64, 0xf3, 0x10, 0xbe, 0xc2, 0xfd, 0x81, 0x3c,
  0x6b, 0xe7, 0x43, 0x3e, 0x92, 0xae, 0x6b, 0xbe, 0x46, 0x04, 0x2a, 0x3d,
  0x46, 0x5b, 0xb0, 0xbe, 0x2e, 0xba, 0x92, 0xbe, 0xa0, 0x5d, 0x2e, 0x3e,
  0xe9, 0x0c, 0x13, 0x3d, 0xca, 0x74, 0xb7, 0x3c, 0xe3, 0xbb, 0xb1, 0xbd,
  0x8d, 0x6a, 0x39, 0xbe, 0x67, 0x02, 0x97, 0xbe, 0xc1, 0x1a, 0xa2, 0x3e,
  0x4f, 0xa9, 0xea, 0x3d, 0xb5, 0x6b, 0x12, 0x3c, 0x8b, 0x14, 0x26, 0xbe,
  0xff, 0x91, 0x6a, 0x3d, 0xa3, 0x2b, 0x49, 0x3e, 0x34, 0x32, 0x4f, 0x3d,
  0x78, 0x1f, 0x6c, 0xbc, 0x92, 0x7b, 0x07, 0x3c, 0x4a, 0xc6, 0xc1, 0xbe,
  0x07, 0x0d, 0x08, 0xbe, 0xe6, 0x92, 0x08, 0xbf, 0x74, 0x6d, 0x83, 0x3e,
  0x82, 0x47, 0xaa, 0x3d, 0xd9, 0x6e, 0x99, 0x3e, 0xbd, 0x0b, 0x1f, 0xbe,
  0x28, 0xb7, 0x88, 0xbd, 0xef, 0x31, 0x50, 0xbe, 0x3b, 0xdc, 0x5b, 0xbe,
  0xa7, 0x06, 0x7e, 0x3c, 0x1f, 0x7b, 0xc5, 0x3e, 0x6a, 0xf4, 0x39, 0x3e,
  0x7b, 0x4a, 0xc6, 0x3b, 0x9a, 0x89, 0x3c, 0x3e, 0xda, 0x54, 0x06, 0xbe,
  0x0a, 0xa8, 0x4e, 0xbe, 0xcf, 0x8a, 0x0a, 0x3e, 0xc9, 0x1f, 0xed, 0xbc,
  0xd3, 0x3b, 0x69, 0xbd, 0x88, 0xb9, 0xfe, 0x3d, 0x57, 0xec, 0x8d, 0x3d,
  0x81, 0x4d, 0xad, 0x3c, 0x21, 0x45, 0x01, 0xbe, 0x74, 0x44, 0x89, 0xbd,
  0x25, 0x54, 0x16, 0x3d, 0xee, 0x88, 0x61, 0x3b, 0x55, 0xee, 0x33, 0xbb,
  0xbe, 0x4f, 0x96, 0xbc, 0x74, 0xfe, 0x43, 0x3e, 0x52, 0x05, 0x54, 0xbd,
  0x35, 0xe4, 0x7e, 0xbe, 0x39, 0xb8, 0xec, 0xbd, 0x79, 0x46, 0x58, 0xbd,
  0x1d, 0xc5, 0x9b, 0xbd, 0x69, 0x1f, 0xb7, 0xbd, 0x58, 0x74, 0xc6, 0xbc,
  0x22, 0x41, 0x8c, 0xbd, 0xcb, 0x34, 0xd4, 0x3d, 0x36, 0xa3, 0xa0, 0xbe,
  0x15, 0x84, 0xe2, 0x3d, 0xdf, 0x66, 0xc5, 0xbd, 0xae, 0xdd, 0x4b, 0xbc,
  0xc8, 0x01, 0x82, 0xbc, 0x05, 0x14, 0x4c, 0x3e, 0x77, 0x37, 0x86, 0x3e,
  0xa0, 0xba, 0x0d, 0xbe, 0x69, 0xd5, 0xaa, 0x3d, 0x86, 0xdd, 0x61, 0xbe,
  0xb7, 0x79, 0xd2, 0xbd, 0xda, 0x3e, 0x82, 0xbe, 0x49, 0x11, 0x97, 0xbd,
  0x9f, 0xf0, 0x28, 0xbd, 0xfa, 0xbd, 0xc6, 0x3b, 0x73, 0xb6, 0x94, 0xbc,
  0x0a, 0xbb, 0x41, 0xbd, 0x8c, 0x33, 0xd1, 0xbd, 0x46, 0x1a, 0x16, 0xbe,
  0x27, 0x29, 0x34, 0x3d, 0x71, 0x77, 0xb9, 0x3d, 0xb4, 0x87, 0x32, 0x3e,
  0x01, 0x24, 0x57, 0x3e, 0xc5, 0xfa, 0xda, 0xbc, 0x71, 0x7d, 0x2d, 0xbe,
  0x25, 0xff, 0x65, 0xbe, 0x26, 0x3d, 0xaf, 0xbe, 0x70, 0x91, 0x62, 0xbe,
  0xe0, 0xca, 0x69, 0xbc, 0x60, 0x5f, 0x4d, 0x3d, 0x04, 0x23, 0x01, 0xbe,
  0x9c, 0xf4, 0x05, 0xbe, 0x5a, 0x71, 0x07, 0x3d, 0x70, 0x5b, 0x6c, 0xbe,
  0x63, 0x4b, 0x49, 0xbd, 0x05, 0x73, 0x00, 0xbe, 0x91, 0x1d, 0x05, 0xbc,
  0xc4, 0x4a, 0xc4, 0xbd, 0xba, 0x3d, 0x4d, 0x3d, 0x42, 0x6f, 0xd7, 0x3d,
  0x55, 0x82, 0x90, 0xbe, 0x03, 0x32, 0xaf, 0xbe, 0x41, 0x11, 0xdf, 0xbd,
  0xf0, 0x55, 0xdd, 0xbd, 0x14, 0x02, 0x19, 0xbd, 0xc2, 0xf8, 0xb4, 0xbd,
  0xd6, 0x39, 0x5f, 0xbd, 0xde, 0x02, 0x1d, 0x3b, 0x75, 0x73, 0x1a, 0xbe,
  0xf4, 0x03, 0x86, 0xbd, 0x86, 0x03, 0xfd, 0xbc, 0x03, 0x90, 0x6c, 0xbd,
  0xaa, 0xfc, 0xdb, 0x3d, 0xd1, 0x97, 0xa9, 0x3e, 0xc2, 0x8a, 0x1c, 0x3e,
  0xf8, 0x10, 0xd5, 0x3d, 0x93, 0x8d, 0x30, 0xbe, 0x1a, 0x02, 0x0c, 0xbd,
  0xf8, 0x51, 0xe6, 0xb9, 0x00, 0xda, 0xea, 0x3c, 0x86, 0xdd, 0x92, 0x3d,
  0xca, 0xde, 0x85, 0x3c, 0xed, 0xd2, 0x2f, 0x3d, 0x06, 0x92, 0x9e, 0xbd,
  0x50, 0x77, 0x07, 0xbe, 0xfe, 0x7b, 0x68, 0xbe, 0x05, 0xac, 0xe6, 0x3c,
  0x1b, 0x1b, 0x4d, 0x3d, 0x91, 0x77, 0x5e, 0x3d, 0xe0, 0xf2, 0xb0, 0x3d,
  0x22, 0x90, 0x75, 0xbc, 0x9b, 0x76, 0xba, 0x3d, 0x6b, 0xde, 0x80, 0xbd,
  0x16, 0xed, 0x98, 0xbd, 0x3a, 0xd9, 0xb0, 0xbe, 0x2a, 0xc4, 0x7d, 0xbf,
  0x35, 0xb5, 0xcb, 0xbd, 0x8a, 0xc4, 0xbc, 0xbd, 0xd3, 0x25, 0x0c, 0xbd,
  0x31, 0xc7, 0x9b, 0x3d, 0x0c, 0x9c, 0xed, 0xbe, 0x65, 0x78, 0xef, 0xbd,
  0xa0, 0x2d, 0x73, 0xbf, 0xb2, 0x44, 0x75, 0xbd, 0x02, 0x84, 0xd6, 0xbe,
  0x73, 0x98, 0xd7, 0x3d, 0x75, 0xcb, 0x29, 0x3e, 0x07, 0x75, 0x14, 0x3e,
  0x76, 0x01, 0xd1, 0xbe, 0x58, 0xdc, 0x4a, 0xbe, 0x3c, 0x10, 0x8b, 0x3e,
  0x2e, 0x5e, 0xd5, 0xbc, 0xbc, 0xc8, 0x90, 0xbd, 0x92, 0x97, 0x66, 0xbe,
  0x00, 0xaf, 0x42, 0x3e, 0xbc, 0xea, 0xbb, 0x3e, 0xbc, 0xf0, 0x5b, 0x3e,
  0x11, 0xfe, 0x48, 0x3e, 0x8a, 0x71, 0xc5, 0x3e, 0xf8, 0xca, 0x00, 0x3e,
  0x16, 0x63, 0x10, 0x3e, 0x3a, 0x67, 0x87, 0x3d, 0x8d, 0xbd, 0xea, 0x3d,
  0x20, 0x41, 0x53, 0x3d, 0xba, 0x54, 0x9c, 0xbe, 0x6f, 0x47, 0x48, 0xbc,
  0x0a, 0xa2, 0x00, 0xbe, 0xa2, 0x3a, 0xce, 0x3d, 0x7f, 0xc0, 0xe7, 0x3d,
  0x4e, 0x36, 0x21, 0xbe, 0x95, 0x0c, 0xe5, 0x3c, 0xf9, 0x83, 0x2a, 0x3e,
  0x34, 0x57, 0x8a, 0x3e, 0xbf, 0xd5, 0x49, 0x3e, 0x99, 0x8d, 0x57, 0x3e,
  0x86, 0xac, 0x90, 0x3d, 0x63, 0x9a, 0x03, 0x3e, 0x43, 0x9c, 0x20, 0xbe,
  0xa5, 0xfb, 0x3b, 0xbc, 0xfd, 0xfa, 0x88, 0xbe, 0xa5, 0xdf, 0xb9, 0xbd,
  0xd4, 0x1d, 0xaa, 0xbc, 0x3c, 0x7a, 0x1f, 0xbe, 0x83, 0x23, 0x00, 0xbe,
  0x5a, 0x95, 0x48, 0x3e, 0xe2, 0x27, 0xfa, 0xbc, 0xb6, 0x27, 0x39, 0xbe,
  0x69, 0x30, 0xe5, 0x3d, 0x53, 0xf8, 0x61, 0x3d, 0x0c, 0x4a, 0x83, 0x3d,
  0x83, 0x56, 0x32, 0x3e, 0xbf, 0x31, 0x4b, 0x3c, 0xfb, 0x07, 0x98, 0x3d,
  0x73, 0xc0, 0x4f, 0x3d, 0x0a, 0x91, 0xd8, 0xbd, 0x9e, 0x3a, 0xcc, 0xbd,
  0x00, 0x50, 0x33, 0xbe, 0x39, 0xc8, 0x63, 0x3d, 0x35, 0x68, 0x4b, 0xbe,
  0xe7, 0x13, 0x54, 0xbe, 0xde, 0xd9, 0xed, 0x3d, 0x38, 0xc5, 0x43, 0x3c,
  0x37, 0x15, 0x9c, 0x3d, 0x79, 0x85, 0x87, 0x3c, 0x6d, 0x1c, 0x64, 0x3c,
  0x42, 0xd3, 0x3e, 0x3d, 0xc8, 0xdf, 0xe9, 0x3c, 0x1d, 0x7b, 0x4a, 0x3d,
  0x40, 0x63, 0x03, 0x3e, 0x01, 0xf5, 0x71, 0x3d, 0x05, 0xb8, 0xbe, 0xbd,
  0x8e, 0x19, 0x01, 0x3e, 0x18, 0x41, 0xab, 0xbe, 0xe5, 0xb4, 0xcb, 0x3d,
  0x51, 0x2e, 0x4b, 0xbe, 0x4c, 0x4e, 0x6d, 0xbe, 0x91, 0xa3, 0x53, 0x3e,
  0xe8, 0xff, 0xd7, 0xbd, 0x5d, 0x11, 0x70, 0x3d, 0x44, 0x28, 0xd1, 0x3d,
  0x0e, 0x1a, 0xef, 0x3b, 0x8a, 0x1d, 0x17, 0x3e, 0x39, 0xa1, 0x28, 0x3e,
  0x2d, 0x76, 0xb8, 0x3d, 0x7c, 0xb3, 0x3d, 0x3d, 0x7d, 0x6e, 0x96, 0xbe,
  0xb0, 0xea, 0xa1, 0x3d, 0xef, 0xcb, 0x56, 0x3d, 0x01, 0xe2, 0x9b, 0xbe,
  0x8e, 0xea, 0xce, 0x3d, 0xae, 0x90, 0xd4, 0xbc, 0xb2, 0xce, 0x33, 0xbe,
  0x88, 0x67, 0x64, 0xbc, 0x42, 0x92, 0xd4, 0xbd, 0x5b, 0xf8, 0x00, 0xbd,
  0x8c, 0x91, 0x28, 0x3e, 0x62, 0x00, 0xae, 0x3e, 0xf1, 0x49, 0xce, 0x3d,
  0xcd, 0xdc, 0x89, 0xbc, 0xf0, 0x69, 0x56, 0x3e, 0x19, 0x9d, 0x9f, 0x3d,
  0x05, 0x3f, 0x0a, 0xbe, 0x1f, 0x75, 0xc2, 0xbb, 0x52, 0xcc, 0x00, 0x3d,
  0xd3, 0x95, 0x9c, 0xbe, 0xff, 0x4a, 0x9b, 0xbc, 0x4a, 0xb4, 0x65, 0x3e,
  0x5b, 0x4f, 0x21, 0xbc, 0x1a, 0x48, 0xc2, 0x3c, 0x7d, 0x9e, 0xb1, 0xbe,
  0x55, 0x8f, 0x15, 0xbe, 0x72, 0x27, 0xc4, 0x3d, 0x3d, 0xe4, 0xfc, 0x3c,
  0x68, 0x43, 0xa3, 0x3d, 0xca, 0x22, 0x88, 0x3c, 0xfa, 0xa4, 0x89, 0xbc,
  0x98, 0xcf, 0xa3, 0xbd, 0x00, 0x18, 0x37, 0xbe, 0x6f, 0x84, 0xdd, 0xbc,
  0xb1, 0x96, 0x33, 0xbe, 0x17, 0x65, 0x87, 0x3e, 0xd2, 0xb1, 0xc4, 0x3e,
  0x85, 0x73, 0x31, 0xbd, 0xa9, 0x82, 0x7e, 0xbc, 0xa7, 0xa3, 0xd3, 0xbc,
  0x7f, 0x10, 0xbc, 0xbe, 0xe4, 0x5a, 0x79, 0xbe, 0x28, 0xdf, 0xca, 0xbd,
  0xb0, 0x09, 0xa2, 0x3d, 0x2a, 0x95, 0x05, 0xbc, 0x93, 0xf9, 0x3c, 0xbe,
  0x2e, 0xc1, 0x3e, 0x3d, 0x39, 0xb5, 0x10, 0xba, 0xd6, 0xe1, 0x8a, 0x3d,
  0x3d, 0x4d, 0x19, 0xbe, 0x68, 0x0d, 0x20, 0xbe, 0x19, 0xa2, 0x66, 0x3e,
  0x0b, 0x8b, 0x9d, 0x3e, 0xb3, 0x54, 0xbc, 0x3d, 0xa0, 0x3d, 0x61, 0xbd,
  0xaf, 0xf9, 0x90, 0xbd, 0xa2, 0x26, 0x85, 0xbe, 0x92, 0x13, 0x84, 0xbd,
  0xef, 0x8b, 0x63, 0xbd, 0xf7, 0xce, 0xc2, 0x3c, 0x48, 0x07, 0x0f, 0x3b,
  0x18, 0x98, 0x56, 0xba, 0x76, 0x52, 0x95, 0x3d, 0x84, 0x80, 0xc1, 0x3c,
  0xa8, 0x8f, 0xe0, 0xbc, 0x6d, 0xb0, 0x23, 0xbe, 0x49, 0x86, 0xed, 0x3c,
  0x7e, 0x0a, 0xac, 0x3e, 0x8f, 0x9c, 0x4c, 0x3e, 0xc4, 0x87, 0x6d, 0x3d,
  0x79, 0xa1, 0x21, 0x3c, 0x89, 0x0d, 0x8e, 0xbd, 0x7c, 0xae, 0x8a, 0xbe,
  0xfd, 0x6c, 0x27, 0xbe, 0xd6, 0x51, 0xce, 0xbb, 0x5b, 0x8e, 0xde, 0xbd,
  0xdd, 0x5b, 0x60, 0x3c, 0x37, 0x30, 0x8b, 0xbd, 0x12, 0x93, 0x83, 0xbc,
  0xd0, 0x86, 0xb5, 0xbc, 0xd8, 0x75, 0x88, 0xbc, 0xe3, 0x39, 0x6a, 0x3c,
  0x00, 0x52, 0x8c, 0x3b, 0x33, 0x16, 0xdb, 0x3e, 0xf4, 0x09, 0x4b, 0x3e,
  0xc7, 0xd5, 0x1a, 0x3e, 0xe2, 0x46, 0x85, 0xbb, 0xaa, 0x7e, 0xe2, 0x3c,
  0xcf, 0x4e, 0x0a, 0xbe, 0x92, 0xd1, 0x6b, 0xbd, 0x24, 0x10, 0x9a, 0xbc,
  0x53, 0xfa, 0xf7, 0x3c, 0x54, 0xb7, 0x36, 0xbe, 0x46, 0xaf, 0x95, 0x3a,
  0xd0, 0xa2, 0xa5, 0x3b, 0x9c, 0xe4, 0x6b, 0x3a, 0xa8, 0xdf, 0x10, 0xbe,
  0xf9, 0xce, 0x56, 0x3d, 0xb9, 0x35, 0x83, 0xbd, 0xae, 0x10, 0xdb, 0x3e,
  0xd9, 0xe8, 0x37, 0x3e, 0x83, 0x72, 0x20, 0x3e, 0x2f, 0x8c, 0x17, 0xbc,
  0xc7, 0x0f, 0x85, 0xbc, 0xa5, 0x4b, 0xb6, 0xbd, 0x6c, 0x31, 0x6e, 0xbd,
  0x5b, 0xba, 0x02, 0xbd, 0x5f, 0x1c, 0x35, 0xbd, 0xac, 0x5f, 0x0c, 0xbd,
  0x1e, 0x89, 0xd2, 0xbd, 0x56, 0x50, 0x81, 0x3d, 0x3a, 0xe5, 0x97, 0xbd,
  0xf9, 0xa8, 0x0b, 0x3a, 0xed, 0x18, 0x69, 0xbe, 0xa6, 0x00, 0xdd, 0xbd,
  0x34, 0x83, 0x95, 0x3e, 0x88, 0x53, 0xa0, 0x3d, 0xf2, 0x23, 0x23, 0x3d,
  0x24, 0x84, 0x4b, 0xbc, 0x0e, 0xd3, 0x01, 0xbe, 0x5d, 0x3f, 0x2c, 0xbd,
  0xe0, 0xe3, 0x8e, 0xbd, 0xae, 0x97, 0x1c, 0x3d, 0xa9, 0x40, 0x60, 0xbd,
  0xe0, 0x2d, 0xaf, 0xbd, 0x02, 0x80, 0x6f, 0x3c, 0xcf, 0xbb, 0xff, 0x3c,
  0x7c, 0x63, 0x75, 0xbd, 0xbb, 0xc7, 0x18, 0xbe, 0x4e, 0xe0, 0xfb, 0xbc,
  0x27, 0xdc, 0x88, 0xbd, 0x00, 0x2b, 0x13, 0x3e, 0xd1, 0xd3, 0xb9, 0x3d,
  0x8a, 0xb9, 0xf2, 0x3d, 0x45, 0x63, 0x87, 0xbd, 0x68, 0xa4, 0x05, 0xbe,
  0xfc, 0xfd, 0x14, 0xbd, 0x99, 0xbd, 0xef, 0xbe, 0x35, 0x01, 0xa5, 0xbe,
  0x12, 0xfe, 0x69, 0x3e, 0x68, 0x38, 0x82, 0x3e, 0xae, 0xb6, 0x82, 0x3d,
  0x81, 0x45, 0x41, 0xbe, 0x6c, 0xa7, 0xb2, 0xbe, 0xf8, 0x20, 0xbb, 0xbd,
  0xf6, 0x9f, 0xc0, 0x3d, 0x33, 0xbb, 0xbc, 0x3d, 0x27, 0x06, 0x5e, 0x3e,
  0x0e, 0xed, 0x06, 0xbf, 0xda, 0x23, 0x72, 0x3e, 0x68, 0x9a, 0x9b, 0xbb,
  0x5a, 0x2a, 0x30, 0xbd, 0x24, 0x30, 0xcb, 0xbd, 0x20, 0xb9, 0x12, 0x3e,
  0x68, 0x1f, 0x9d, 0xbe, 0x4a, 0x19, 0xdb, 0xbd, 0x58, 0x90, 0xd5, 0x3b,
  0x13, 0x70, 0xb9, 0x3d, 0xd4, 0xe0, 0x65, 0xbe, 0x6e, 0x9a, 0x10, 0x3d,
  0x8e, 0x72, 0x89, 0x3b, 0xb0, 0x4e, 0x1f, 0xbe, 0xb4, 0xc9, 0x98, 0x3e,
  0x88, 0xee, 0x48, 0x3e, 0x64, 0x65, 0x67, 0xbe, 0x51, 0xda, 0x35, 0x3e,
  0xa4, 0xc8, 0xe4, 0xbd, 0xf1, 0xa6, 0x95, 0xbe, 0xac, 0x8f, 0xc1, 0xbd,
  0xdf, 0xb7, 0x32, 0x3e, 0x16, 0xc1, 0x96, 0xbe, 0xc1, 0xb5, 0x9b, 0xbd,
  0xe1, 0x59, 0x8b, 0xbd, 0x68, 0xc4, 0xcf, 0x3d, 0xbe, 0x94, 0x39, 0xbe,
  0xac, 0xc5, 0xcf, 0xbd, 0x13, 0x86, 0x20, 0x3e, 0xf9, 0x64, 0x61, 0xbe,
  0x9a, 0x87, 0x3b, 0x3e, 0xa2, 0xf1, 0x6f, 0x3e, 0x62, 0xd1, 0x64, 0xbe,
  0x53, 0xdb, 0x86, 0xbe, 0x81, 0x9b, 0xb1, 0x3c, 0xb3, 0x60, 0x5a, 0xbe,
  0xa9, 0xf3, 0xc8, 0xbd, 0x56, 0xf2, 0x37, 0x3e, 0xdf, 0x7e, 0x3b, 0xbe,
  0x45, 0x87, 0x8a, 0x3c, 0x24, 0x1a, 0xb5, 0xbe, 0xdd, 0x7d, 0x29, 0x3d,
  0xf3, 0x69, 0xb1, 0xbe, 0x1e, 0xb2, 0x1c, 0xbd, 0xfd, 0x81, 0x56, 0x3e,
  0xb1, 0x44, 0xbb, 0xbd, 0x00, 0xbc, 0xc2, 0xbe, 0x3c, 0xe1, 0xa6, 0xbd,
  0x8b, 0xa2, 0x6e, 0xbe, 0x75, 0x15, 0xbc, 0x3c, 0x02, 0x29, 0x8d, 0x3d,
  0x65, 0x31, 0x87, 0x3b, 0x15, 0x87, 0x8c, 0xbd, 0x1e, 0x0f, 0xa9, 0xbd,
  0x7e, 0xa4, 0xc6, 0xba, 0x04, 0x51, 0x10, 0x3e, 0x38, 0x2b, 0x71, 0x3e,
  0x3c, 0xb3, 0x89, 0x3e, 0x99, 0xc2, 0xd9, 0xbd, 0x00, 0xce, 0x85, 0x3c,
  0xd8, 0x75, 0xc0, 0xbc, 0xc4, 0xf0, 0x32, 0xbe, 0x04, 0x50, 0x14, 0xbf,
  0xd4, 0x76, 0xb1, 0xbe, 0x97, 0x47, 0x56, 0xbe, 0x08, 0x68, 0xf2, 0x3d,
  0xbc, 0xdb, 0x95, 0xbc, 0x49, 0xbe, 0x4f, 0xbe, 0x82, 0xa1, 0x91, 0xbd,
  0x2f, 0x06, 0x59, 0xbe, 0xb5, 0x92, 0x70, 0xbe, 0x82, 0x86, 0xea, 0x3a,
  0x9a, 0x14, 0x48, 0x3e, 0x49, 0xb7, 0xe8, 0x3d, 0xb6, 0x32, 0x7d, 0xbd,
  0xe1, 0x4d, 0x12, 0x3e, 0xe3, 0x25, 0x91, 0x3c, 0xf6, 0xa4, 0x55, 0xbe,
  0xab, 0x69, 0x2f, 0x3d, 0xe9, 0xba, 0x29, 0x3e, 0x1f, 0xaa, 0x3d, 0xbe,
  0xcd, 0xcf, 0x34, 0x3e, 0xac, 0xc7, 0xaf, 0xbd, 0x75, 0xb9, 0xd5, 0xbd,
  0x00, 0xe4, 0xd5, 0xbd, 0x5d, 0xd6, 0xb6, 0x3d, 0xcc, 0xe2, 0x34, 0xbd,
  0x30, 0x3b, 0x05, 0xbd, 0x9a, 0xee, 0x08, 0x3e, 0x7a, 0x79, 0x59, 0xbd,
  0x1e, 0x1a, 0x4a, 0xbe, 0xe0, 0x1b, 0x1c, 0x3d, 0x69, 0xdb, 0xe9, 0x3d,
  0xff, 0x4b, 0x57, 0x3c, 0xb2, 0xa1, 0x96, 0x3b, 0x30, 0x84, 0x92, 0x3d,
  0x7f, 0xb2, 0x0d, 0xbe, 0x62, 0xfd, 0xff, 0xff, 0x10, 0x00, 0x00, 0x00,
  0x07, 0x00, 0x00, 0x00, 0x14, 0x00, 0x00, 0x00, 0x2c, 0x00, 0x00, 0x00,
  0x02, 0x00, 0x00, 0x00, 0x10, 0x00, 0x00, 0x00, 0x70, 0x00, 0x00, 0x00,
  0x17, 0x00, 0x00, 0x00, 0x73, 0x65, 0x71, 0x75, 0x65, 0x6e, 0x74, 0x69,
  0x61, 0x6c, 0x2f, 0x64, 0x65, 0x6e, 0x73, 0x65, 0x2f, 0x4d, 0x61, 0x74,
  0x4d, 0x75, 0x6c, 0x00, 0xcc, 0xfc, 0xff, 0xff, 0xd6, 0xfd, 0xff, 0xff,
  0x04, 0x00, 0x00, 0x00, 0x08, 0x00, 0x00, 0x00, 0xff, 0xff, 0xff, 0xff,
  0x70, 0x00, 0x00, 0x00, 0x00, 0x00, 0x0e, 0x00, 0x18, 0x00, 0x08, 0x00,
  0x07, 0x00, 0x0c, 0x00, 0x10, 0x00, 0x14, 0x00, 0x0e, 0x00, 0x00, 0x00,
  0x00, 0x00, 0x00, 0x02, 0x10, 0x00, 0x00, 0x00, 0x06, 0x00, 0x00, 0x00,
  0x10, 0x00, 0x00, 0x00, 0x2c, 0x00, 0x00, 0x00, 0x01, 0x00, 0x00, 0x00,
  0x02, 0x00, 0x00, 0x00, 0x18, 0x00, 0x00, 0x00, 0x73, 0x65, 0x71, 0x75,
  0x65, 0x6e, 0x74, 0x69, 0x61, 0x6c, 0x2f, 0x66, 0x6c, 0x61, 0x74, 0x74,
  0x65, 0x6e, 0x2f, 0x43, 0x6f, 0x6e, 0x73, 0x74, 0x00, 0x00, 0x00, 0x00,
  0x34, 0xfd, 0xff, 0xff, 0x3e, 0xfe, 0xff, 0xff, 0x04, 0x00, 0x00, 0x00,
  0x10, 0x00, 0x00, 0x00, 0x97, 0x87, 0xcd, 0x3e, 0x0c, 0x37, 0x86, 0xbf,
  0x73, 0xe5, 0x64, 0xbc, 0x20, 0x72, 0x99, 0x3e, 0x26, 0xfe, 0xff, 0xff,
  0x10, 0x00, 0x00, 0x00, 0x05, 0x00, 0x00, 0x00, 0x10, 0x00, 0x00, 0x00,
  0x44, 0x00, 0x00, 0x00, 0x01, 0x00, 0x00, 0x00, 0x04, 0x00, 0x00, 0x00,
  0x32, 0x00, 0x00, 0x00, 0x73, 0x65, 0x71, 0x75, 0x65, 0x6e, 0x74, 0x69,
  0x61, 0x6c, 0x2f, 0x64, 0x65, 0x6e, 0x73, 0x65, 0x5f, 0x31, 0x2f, 0x42,
  0x69, 0x61, 0x73, 0x41, 0x64, 0x64, 0x2f, 0x52, 0x65, 0x61, 0x64, 0x56,
  0x61, 0x72, 0x69, 0x61, 0x62, 0x6c, 0x65, 0x4f, 0x70, 0x2f, 0x72, 0x65,
  0x73, 0x6f, 0x75, 0x72, 0x63, 0x65, 0x00, 0x00, 0xa8, 0xfd, 0xff, 0xff,
  0xb2, 0xfe, 0xff, 0xff, 0x04, 0x00, 0x00, 0x00, 0x40, 0x00, 0x00, 0x00,
  0xa7, 0xa8, 0x78, 0xbf, 0x68, 0xc1, 0x30, 0xbf, 0x32, 0x87, 0xa5, 0x3e,
  0x06, 0xf3, 0x2f, 0x3f, 0xe4, 0xbb, 0x1b, 0xbe, 0x2f, 0x00, 0x8d, 0x3e,
  0x57, 0xd9, 0x4f, 0xbf, 0xf4, 0x57, 0x3e, 0xbf, 0x89, 0x28, 0x5f, 0x3f,
  0xa6, 0x53, 0x48, 0xbf, 0x76, 0x9e, 0x45, 0xbe, 0x09, 0x43, 0x8a, 0x3e,
  0x8d, 0x8a, 0x53, 0x3f, 0x6a, 0x23, 0xb4, 0xbe, 0x5b, 0xb8, 0x89, 0xbf,
  0x1a, 0x0c, 0x40, 0xbf, 0xca, 0xfe, 0xff, 0xff, 0x10, 0x00, 0x00, 0x00,
  0x04, 0x00, 0x00, 0x00, 0x10, 0x00, 0x00, 0x00, 0x44, 0x00, 0x00, 0x00,
  0x01, 0x00, 0x00, 0x00, 0x10, 0x00, 0x00, 0x00, 0x30, 0x00, 0x00, 0x00,
  0x73, 0x65, 0x71, 0x75, 0x65, 0x6e, 0x74, 0x69, 0x61, 0x6c, 0x2f, 0x64,
  0x65, 0x6e, 0x73, 0x65, 0x2f, 0x42, 0x69, 0x61, 0x73, 0x41, 0x64, 0x64,
  0x2f, 0x52, 0x65, 0x61, 0x64, 0x56, 0x61, 0x72, 0x69, 0x61, 0x62, 0x6c,
  0x65, 0x4f, 0x70, 0x2f, 0x72, 0x65, 0x73, 0x6f, 0x75, 0x72, 0x63, 0x65,
  0x00, 0x00, 0x00, 0x00, 0x4c, 0xfe, 0xff, 0xff, 0x56, 0xff, 0xff, 0xff,
  0x04, 0x00, 0x00, 0x00, 0x40, 0x00, 0x00, 0x00, 0x26, 0x2b, 0x5b, 0xbf,
  0xb8, 0xd1, 0x5e, 0x3f, 0x7b, 0x4f, 0x69, 0xbe, 0x4a, 0x92, 0xc1, 0xbe,
  0x1e, 0xf4, 0x20, 0x3d, 0x69, 0xa9, 0x1c, 0x3f, 0xca, 0xeb, 0x68, 0xbe,
  0x3a, 0x10, 0x15, 0xbf, 0x1b, 0x64, 0xd9, 0x3b, 0xb0, 0x1c, 0xc8, 0xbe,
  0x76, 0x91, 0x40, 0xbb, 0xea, 0x3b, 0x12, 0xbe, 0x99, 0xfd, 0x17, 0xbf,
  0x3b, 0xa2, 0xde, 0xbe, 0x6e, 0xfc, 0x42, 0xbf, 0x84, 0x24, 0xaf, 0xbe,
  0x6e, 0xff, 0xff, 0xff, 0x10, 0x00, 0x00, 0x00, 0x03, 0x00, 0x00, 0x00,
  0x10, 0x00, 0x00, 0x00, 0x48, 0x00, 0x00, 0x00, 0x01, 0x00, 0x00, 0x00,
  0x10, 0x00, 0x00, 0x00, 0x33, 0x00, 0x00, 0x00, 0x73, 0x65, 0x71, 0x75,
  0x65, 0x6e, 0x74, 0x69, 0x61, 0x6c, 0x2f, 0x63, 0x6f, 0x6e, 0x76, 0x32,
  0x64, 0x5f, 0x31, 0x2f, 0x42, 0x69, 0x61, 0x73, 0x41, 0x64, 0x64, 0x2f,
  0x52, 0x65, 0x61, 0x64, 0x56, 0x61, 0x72, 0x69, 0x61, 0x62, 0x6c, 0x65,
  0x4f, 0x70, 0x2f, 0x72, 0x65, 0x73, 0x6f, 0x75, 0x72, 0x63, 0x65, 0x00,
  0x04, 0x00, 0x06, 0x00, 0x04, 0x00, 0x00, 0x00, 0x00, 0x00, 0x06, 0x00,
  0x08, 0x00, 0x04, 0x00, 0x06, 0x00, 0x00, 0x00, 0x04, 0x00, 0x00, 0x00,
  0x20, 0x00, 0x00, 0x00, 0xa9, 0x8c, 0xfa, 0xbe, 0x44, 0x08, 0x30, 0xc0,
  0x7e, 0xc5, 0x9e, 0x3e, 0x93, 0x1d, 0xbf, 0xbd, 0xe3, 0xbb, 0x77, 0xbf,
  0x98, 0xed, 0xae, 0xbe, 0x42, 0x8f, 0x01, 0xbf, 0x91, 0xc2, 0x8e, 0xbf,
  0x00, 0x00, 0x0e, 0x00, 0x14, 0x00, 0x04, 0x00, 0x00, 0x00, 0x08, 0x00,
  0x0c, 0x00, 0x10, 0x00, 0x0e, 0x00, 0x00, 0x00, 0x10, 0x00, 0x00, 0x00,
  0x02, 0x00, 0x00, 0x00, 0x10, 0x00, 0x00, 0x00, 0x44, 0x00, 0x00, 0x00,
  0x01, 0x00, 0x00, 0x00, 0x08, 0x00, 0x00, 0x00, 0x31, 0x00, 0x00, 0x00,
  0x73, 0x65, 0x71, 0x75, 0x65, 0x6e, 0x74, 0x69, 0x61, 0x6c, 0x2f, 0x63,
  0x6f, 0x6e, 0x76, 0x32, 0x64, 0x2f, 0x42, 0x69, 0x61, 0x73, 0x41, 0x64,
  0x64, 0x2f, 0x52, 0x65, 0x61, 0x64, 0x56, 0x61, 0x72, 0x69, 0x61, 0x62,
  0x6c, 0x65, 0x4f, 0x70, 0x2f, 0x72, 0x65, 0x73, 0x6f, 0x75, 0x72, 0x63,
  0x65, 0x00, 0x00, 0x00, 0x90, 0xff, 0xff, 0xff, 0x14, 0x00, 0x18, 0x00,
  0x04, 0x00, 0x00, 0x00, 0x08, 0x00, 0x0c, 0x00, 0x10, 0x00, 0x00, 0x00,
  0x00, 0x00, 0x14, 0x00, 0x14, 0x00, 0x00, 0x00, 0x14, 0x00, 0x00, 0x00,
  0x01, 0x00, 0x00, 0x00, 0x20, 0x00, 0x00, 0x00, 0x44, 0x00, 0x00, 0x00,
  0x2c, 0x00, 0x00, 0x00, 0x04, 0x00, 0x00, 0x00, 0x01, 0x00, 0x00, 0x00,
  0x40, 0x00, 0x00, 0x00, 0x03, 0x00, 0x00, 0x00, 0x01, 0x00, 0x00, 0x00,
  0x0c, 0x00, 0x00, 0x00, 0x63, 0x6f, 0x6e, 0x76, 0x32, 0x64, 0x5f, 0x69,
  0x6e, 0x70, 0x75, 0x74, 0x00, 0x00, 0x00, 0x00, 0x04, 0x00, 0x00, 0x00,
  0xff, 0xff, 0xff, 0xff, 0x40, 0x00, 0x00, 0x00, 0x03, 0x00, 0x00, 0x00,
  0x01, 0x00, 0x00, 0x00, 0xfc, 0xff, 0xff, 0xff, 0x04, 0x00, 0x04, 0x00,
  0x04, 0x00, 0x00, 0x00
};

unsigned int model_tflite_len =13120;// Fill the int in `src/model.cc` here